/*

// We need to keep the data array aligned on some architectures.
#ifdef __has_attribute
#define HAVE_ATTRIBUTE(x) __has_attribute(x)
#else
#define HAVE_ATTRIBUTE(x) 0
#endif
#if HAVE_ATTRIBUTE(aligned) || (defined(__GNUC__) && !defined(__clang__))
#define DATA_ALIGN_ATTRIBUTE __attribute__((aligned(4)))
#else
#define DATA_ALIGN_ATTRIBUTE
#endif


const unsigned char SV_model_data[] DATA_ALIGN_ATTRIBUTE = {*/

alignas(8) const unsigned char SV_model_data[] = {
  0x1c, 0x00, 0x00, 0x00, 0x54, 0x46, 0x4c, 0x33, 0x14, 0x00, 0x20, 0x00,
  0x1c, 0x00, 0x18, 0x00, 0x14, 0x00, 0x10, 0x00, 0x0c, 0x00, 0x00, 0x00,
  0x08, 0x00, 0x04, 0x00, 0x14, 0x00, 0x00, 0x00, 0x1c, 0x00, 0x00, 0x00,
  0x8c, 0x00, 0x00, 0x00, 0xe4, 0x00, 0x00, 0x00, 0x68, 0x23, 0x00, 0x00,
  0x78, 0x23, 0x00, 0x00, 0x84, 0x32, 0x00, 0x00, 0x03, 0x00, 0x00, 0x00,
  0x01, 0x00, 0x00, 0x00, 0x10, 0x00, 0x00, 0x00, 0x00, 0x00, 0x0a, 0x00,
  0x10, 0x00, 0x0c, 0x00, 0x08, 0x00, 0x04, 0x00, 0x0a, 0x00, 0x00, 0x00,
  0x0c, 0x00, 0x00, 0x00, 0x1c, 0x00, 0x00, 0x00, 0x3c, 0x00, 0x00, 0x00,
  0x0f, 0x00, 0x00, 0x00, 0x73, 0x65, 0x72, 0x76, 0x69, 0x6e, 0x67, 0x5f,
  0x64, 0x65, 0x66, 0x61, 0x75, 0x6c, 0x74, 0x00, 0x01, 0x00, 0x00, 0x00,
  0x04, 0x00, 0x00, 0x00, 0x9c, 0xff, 0xff, 0xff, 0x13, 0x00, 0x00, 0x00,
  0x04, 0x00, 0x00, 0x00, 0x08, 0x00, 0x00, 0x00, 0x6f, 0x75, 0x74, 0x70,
  0x75, 0x74, 0x5f, 0x30, 0x00, 0x00, 0x00, 0x00, 0x01, 0x00, 0x00, 0x00,
  0x04, 0x00, 0x00, 0x00, 0x36, 0xdd, 0xff, 0xff, 0x04, 0x00, 0x00, 0x00,
  0x01, 0x00, 0x00, 0x00, 0x78, 0x00, 0x00, 0x00, 0x02, 0x00, 0x00, 0x00,
  0x34, 0x00, 0x00, 0x00, 0x04, 0x00, 0x00, 0x00, 0xdc, 0xff, 0xff, 0xff,
  0x16, 0x00, 0x00, 0x00, 0x04, 0x00, 0x00, 0x00, 0x13, 0x00, 0x00, 0x00,
  0x43, 0x4f, 0x4e, 0x56, 0x45, 0x52, 0x53, 0x49, 0x4f, 0x4e, 0x5f, 0x4d,
  0x45, 0x54, 0x41, 0x44, 0x41, 0x54, 0x41, 0x00, 0x08, 0x00, 0x0c, 0x00,
  0x08, 0x00, 0x04, 0x00, 0x08, 0x00, 0x00, 0x00, 0x15, 0x00, 0x00, 0x00,
  0x04, 0x00, 0x00, 0x00, 0x13, 0x00, 0x00, 0x00, 0x6d, 0x69, 0x6e, 0x5f,
  0x72, 0x75, 0x6e, 0x74, 0x69, 0x6d, 0x65, 0x5f, 0x76, 0x65, 0x72, 0x73,
  0x69, 0x6f, 0x6e, 0x00, 0x17, 0x00, 0x00, 0x00, 0x80, 0x22, 0x00, 0x00,
  0x78, 0x22, 0x00, 0x00, 0x58, 0x22, 0x00, 0x00, 0x38, 0x22, 0x00, 0x00,
  0xe0, 0x21, 0x00, 0x00, 0xb0, 0x21, 0x00, 0x00, 0x60, 0x1f, 0x00, 0x00,
  0x30, 0x1f, 0x00, 0x00, 0xe0, 0x1c, 0x00, 0x00, 0xb0, 0x1c, 0x00, 0x00,
  0x48, 0x01, 0x00, 0x00, 0xd4, 0x00, 0x00, 0x00, 0xcc, 0x00, 0x00, 0x00,
  0xc4, 0x00, 0x00, 0x00, 0xbc, 0x00, 0x00, 0x00, 0xb4, 0x00, 0x00, 0x00,
  0xac, 0x00, 0x00, 0x00, 0xa4, 0x00, 0x00, 0x00, 0x9c, 0x00, 0x00, 0x00,
  0x94, 0x00, 0x00, 0x00, 0x8c, 0x00, 0x00, 0x00, 0x6c, 0x00, 0x00, 0x00,
  0x04, 0x00, 0x00, 0x00, 0x02, 0xde, 0xff, 0xff, 0x04, 0x00, 0x00, 0x00,
  0x58, 0x00, 0x00, 0x00, 0x0c, 0x00, 0x00, 0x00, 0x08, 0x00, 0x0e, 0x00,
  0x08, 0x00, 0x04, 0x00, 0x08, 0x00, 0x00, 0x00, 0x10, 0x00, 0x00, 0x00,
  0x28, 0x00, 0x00, 0x00, 0x00, 0x00, 0x06, 0x00, 0x08, 0x00, 0x04, 0x00,
  0x06, 0x00, 0x00, 0x00, 0x04, 0x00, 0x00, 0x00, 0x01, 0x00, 0x00, 0x00,
  0xeb, 0x03, 0x00, 0x00, 0x00, 0x00, 0x0a, 0x00, 0x10, 0x00, 0x0c, 0x00,
  0x08, 0x00, 0x04, 0x00, 0x0a, 0x00, 0x00, 0x00, 0x01, 0x00, 0x00, 0x00,
  0x02, 0x00, 0x00, 0x00, 0x04, 0x00, 0x00, 0x00, 0x05, 0x00, 0x00, 0x00,
  0x32, 0x2e, 0x39, 0x2e, 0x32, 0x00, 0x00, 0x00, 0x66, 0xde, 0xff, 0xff,
  0x04, 0x00, 0x00, 0x00, 0x10, 0x00, 0x00, 0x00, 0x31, 0x2e, 0x31, 0x34,
  0x2e, 0x30, 0x00, 0x00, 0x00, 0x00, 0x00, 0x00, 0x00, 0x00, 0x00, 0x00,
  0xe0, 0xcf, 0xff, 0xff, 0xe4, 0xcf, 0xff, 0xff, 0xe8, 0xcf, 0xff, 0xff,
  0xec, 0xcf, 0xff, 0xff, 0xf0, 0xcf, 0xff, 0xff, 0xf4, 0xcf, 0xff, 0xff,
  0xf8, 0xcf, 0xff, 0xff, 0xfc, 0xcf, 0xff, 0xff, 0x00, 0xd0, 0xff, 0xff,
  0xa6, 0xde, 0xff, 0xff, 0x04, 0x00, 0x00, 0x00, 0x64, 0x00, 0x00, 0x00,
  0x0c, 0x00, 0x00, 0x00, 0x1a, 0x00, 0x00, 0x00, 0x22, 0x00, 0x00, 0x00,
  0x17, 0x00, 0x00, 0x00, 0x31, 0x00, 0x00, 0x00, 0x01, 0x00, 0x00, 0x00,
  0x22, 0x00, 0x00, 0x00, 0x15, 0x00, 0x00, 0x00, 0x0e, 0x00, 0x00, 0x00,
  0x19, 0x00, 0x00, 0x00, 0xda, 0xff, 0xff, 0xff, 0xf9, 0xff, 0xff, 0xff,
  0x14, 0x00, 0x00, 0x00, 0xec, 0xff, 0xff, 0xff, 0xf0, 0xff, 0xff, 0xff,
  0xfd, 0xff, 0xff, 0xff, 0xe3, 0xff, 0xff, 0xff, 0xd6, 0xff, 0xff, 0xff,
  0x08, 0x00, 0x00, 0x00, 0x06, 0x00, 0x00, 0x00, 0xf4, 0xff, 0xff, 0xff,
  0xf3, 0xff, 0xff, 0xff, 0xfa, 0xff, 0xff, 0xff, 0xee, 0xff, 0xff, 0xff,
  0x07, 0x00, 0x00, 0x00, 0x16, 0xdf, 0xff, 0xff, 0x04, 0x00, 0x00, 0x00,
  0x58, 0x1b, 0x00, 0x00, 0x0e, 0xee, 0x03, 0x06, 0x11, 0xf7, 0xdb, 0x01,
  0x0f, 0x0a, 0x07, 0xf4, 0xf9, 0x01, 0xfb, 0xfd, 0xfa, 0x0c, 0xfe, 0x07,
  0x00, 0x05, 0x05, 0x04, 0xfc, 0x07, 0x0a, 0x05, 0xff, 0xfd, 0xfb, 0xfb,
  0xef, 0x02, 0x21, 0xfc, 0xf6, 0xf8, 0xfc, 0x04, 0xfc, 0xf5, 0x03, 0x0e,
  0x0d, 0xfb, 0xd2, 0x06, 0x0a, 0x18, 0x02, 0x08, 0xfe, 0xff, 0x00, 0x02,
  0xff, 0x17, 0x03, 0x03, 0x02, 0x05, 0x03, 0x02, 0x05, 0x05, 0xf9, 0x17,
  0x00, 0x01, 0xf8, 0x01, 0xfb, 0xf6, 0x0e, 0x18, 0xf5, 0xfa, 0x01, 0x07,
  0xfb, 0xee, 0xfe, 0x0d, 0x0f, 0xfb, 0xcb, 0x03, 0x09, 0x0d, 0x05, 0x01,
  0xfb, 0xff, 0x00, 0xff, 0xff, 0x10, 0x02, 0x03, 0x01, 0x03, 0x03, 0x04,
  0x06, 0xfd, 0xff, 0x11, 0x01, 0xfa, 0xfa, 0x01, 0xf9, 0xfb, 0xff, 0x29,
  0xf7, 0xf7, 0x02, 0x07, 0xfa, 0xf0, 0x05, 0x18, 0x10, 0xfb, 0xc9, 0x06,
  0x0c, 0x00, 0x07, 0x02, 0xfc, 0xfe, 0x01, 0xff, 0x00, 0x12, 0x03, 0xfc,
  0x01, 0x04, 0x05, 0x03, 0x04, 0x08, 0x01, 0x1b, 0x00, 0xfe, 0xf9, 0x01,
  0xfd, 0xfa, 0x05, 0x1c, 0xf6, 0xf9, 0x04, 0x07, 0xfd, 0xe6, 0x07, 0x10,
  0x11, 0xfb, 0xc7, 0x05, 0x09, 0x07, 0xfc, 0x04, 0xfc, 0xfe, 0xff, 0x02,
  0x02, 0x10, 0x10, 0x0f, 0x03, 0x05, 0x02, 0x08, 0x0a, 0xfe, 0xf5, 0x0f,
  0x04, 0x03, 0xfb, 0xfe, 0xfb, 0xfe, 0x06, 0x3b, 0xf7, 0xf9, 0x03, 0x06,
  0xff, 0xf2, 0x00, 0x19, 0x16, 0xf8, 0xc4, 0x08, 0x11, 0x0b, 0x02, 0x0c,
  0xfd, 0xff, 0xff, 0x03, 0x01, 0x0a, 0x02, 0xfb, 0x02, 0x04, 0x04, 0x06,
  0x0f, 0xf0, 0xf8, 0x1b, 0x00, 0xfe, 0xfd, 0x06, 0xfe, 0xf8, 0x0e, 0x38,
  0xfb, 0xfa, 0x03, 0x10, 0xf4, 0xd5, 0x02, 0x25, 0x0e, 0xfd, 0xcc, 0xdf,
  0x11, 0xe7, 0x06, 0x07, 0xf8, 0xfc, 0xf8, 0x06, 0x04, 0x04, 0x10, 0x06,
  0xfd, 0x06, 0x02, 0xe0, 0x08, 0xca, 0xed, 0x02, 0x04, 0xfd, 0xfa, 0x0a,
  0x0a, 0xf1, 0xfd, 0x0a, 0xf0, 0xfa, 0x01, 0x0a, 0x0c, 0xfa, 0xf9, 0x0e,
  0x05, 0x01, 0xd1, 0x0d, 0x0b, 0x01, 0xfb, 0xfb, 0xfc, 0x00, 0xfe, 0xfd,
  0x08, 0x07, 0xf0, 0xfa, 0x05, 0x09, 0x08, 0x0e, 0x20, 0x0a, 0xf7, 0xf4,
  0xff, 0x02, 0xfb, 0x0d, 0x32, 0x02, 0xf6, 0xf2, 0x00, 0xec, 0xf6, 0x13,
  0x01, 0x02, 0x08, 0x11, 0x02, 0x00, 0xcb, 0x10, 0xfe, 0x07, 0x0b, 0x03,
  0xfe, 0x01, 0xff, 0xfa, 0xfb, 0x04, 0xff, 0x02, 0x03, 0x05, 0x04, 0x05,
  0xfd, 0x0a, 0x02, 0x13, 0x03, 0xff, 0xfc, 0x0f, 0x0e, 0x05, 0xef, 0x0f,
  0xfe, 0xed, 0xf4, 0x13, 0xfb, 0xfe, 0xfd, 0x11, 0x05, 0xfe, 0xbe, 0x0a,
  0x05, 0xfa, 0x06, 0xfd, 0xfc, 0x04, 0xff, 0xff, 0xfd, 0x05, 0xfc, 0x02,
  0x04, 0x08, 0x05, 0x06, 0x06, 0xfd, 0x02, 0x0d, 0x00, 0xfc, 0xfd, 0x0e,
  0x09, 0x0b, 0xed, 0x10, 0xfe, 0xed, 0xf7, 0x17, 0xf8, 0x00, 0xfe, 0x0e,
  0x06, 0x00, 0xb6, 0x0d, 0x02, 0xf9, 0x09, 0x03, 0xfc, 0x04, 0x00, 0xfe,
  0xfb, 0x0c, 0xf9, 0xfd, 0x03, 0x08, 0x06, 0x08, 0x02, 0xff, 0x02, 0x06,
  0x01, 0x03, 0xfd, 0x0d, 0x0d, 0x0d, 0xf4, 0x09, 0xff, 0xee, 0xfa, 0x17,
  0xf5, 0x00, 0x07, 0x10, 0x05, 0xfd, 0xaf, 0x0e, 0x02, 0x09, 0xf8, 0x01,
  0xfb, 0x02, 0xff, 0xfc, 0xfe, 0x0f, 0x05, 0xfb, 0x06, 0x0c, 0x04, 0x08,
  0x03, 0x07, 0xfc, 0x08, 0x05, 0x07, 0xff, 0x0a, 0x0d, 0x11, 0xf8, 0x03,
  0xfb, 0xee, 0xfb, 0x1d, 0xef, 0xfc, 0xf4, 0x15, 0x0a, 0xff, 0xa7, 0x0c,
  0x05, 0xf8, 0x0e, 0x03, 0xfc, 0x06, 0xff, 0x03, 0xf4, 0x06, 0xf6, 0xf4,
  0x06, 0x0a, 0x04, 0x08, 0x03, 0x0b, 0xfe, 0xf8, 0x02, 0x01, 0xff, 0x13,
  0x0f, 0x16, 0xe2, 0xf9, 0x00, 0xee, 0xfc, 0x1a, 0xfe, 0xfa, 0x0b, 0x37,
  0x04, 0xfc, 0xb2, 0x00, 0x0a, 0xd4, 0xfa, 0x07, 0xf7, 0xfb, 0xfb, 0xf0,
  0xfb, 0xf1, 0x02, 0xfd, 0xf7, 0x0c, 0x02, 0xfe, 0x0f, 0x08, 0xf6, 0xfa,
  0x06, 0x03, 0xfd, 0x11, 0x05, 0xc2, 0x0c, 0x08, 0xfc, 0xec, 0xf9, 0xf8,
  0xf3, 0xfe, 0x0c, 0xee, 0x08, 0xfe, 0xff, 0x02, 0x07, 0x06, 0x14, 0xed,
  0xfe, 0x09, 0xfb, 0xfa, 0xf0, 0x0a, 0x17, 0x11, 0x0c, 0x04, 0xfa, 0xfd,
  0xe8, 0xfb, 0x25, 0x16, 0xfe, 0x00, 0xfb, 0xf8, 0x91, 0xfd, 0x6a, 0x01,
  0xd2, 0xe9, 0xf8, 0xf1, 0xfc, 0xfa, 0xf9, 0x01, 0x09, 0x03, 0xf6, 0x07,
  0x0c, 0x26, 0xf4, 0x05, 0x02, 0x05, 0xfd, 0x05, 0x04, 0x16, 0xfb, 0x02,
  0x0d, 0x06, 0xfa, 0x04, 0x13, 0xfc, 0xf5, 0x1c, 0x00, 0x07, 0xf1, 0x05,
  0xd2, 0xdb, 0x35, 0x45, 0xda, 0xf0, 0x0c, 0xf7, 0xf6, 0xf9, 0xf8, 0x02,
  0x09, 0x04, 0xfa, 0x0b, 0x06, 0x1b, 0xf2, 0xfc, 0xff, 0x02, 0xfd, 0x02,
  0x01, 0x06, 0xfb, 0x07, 0x0c, 0xff, 0xf9, 0x05, 0x12, 0xf5, 0xfe, 0x0f,
  0xfe, 0x02, 0xf4, 0x06, 0xdf, 0xdf, 0x0e, 0x4f, 0xdd, 0xeb, 0x0c, 0x01,
  0xff, 0xf8, 0xfc, 0x00, 0x09, 0x04, 0xf9, 0x08, 0x0d, 0x0e, 0xfa, 0xff,
  0xff, 0x01, 0xfe, 0x02, 0x02, 0x09, 0x03, 0x01, 0x0b, 0x04, 0xfb, 0x0a,
  0x13, 0xed, 0x01, 0x2d, 0x01, 0x01, 0xf2, 0x0a, 0xe5, 0xe4, 0x21, 0x48,
  0xdb, 0xeb, 0x0d, 0xfe, 0xfc, 0xf0, 0xfe, 0xfe, 0x09, 0x03, 0xfb, 0x05,
  0x0b, 0xff, 0xf5, 0xfd, 0xff, 0xff, 0xfe, 0x0a, 0x05, 0x06, 0x00, 0x17,
  0x0e, 0x04, 0xf8, 0x07, 0x1e, 0xd3, 0xfc, 0x18, 0x01, 0x04, 0xf6, 0x05,
  0xe3, 0xe5, 0x1b, 0x65, 0xe2, 0xea, 0x0f, 0x0e, 0xfa, 0x01, 0xfc, 0x05,
  0x10, 0xfe, 0xfe, 0x05, 0x17, 0x19, 0xee, 0x08, 0xfe, 0xfc, 0xfb, 0x06,
  0x15, 0xfd, 0xfe, 0x0f, 0x10, 0x05, 0xf7, 0x07, 0x2f, 0xd2, 0xfd, 0x2f,
  0x00, 0x07, 0xf4, 0x02, 0xdb, 0xca, 0x3e, 0x7f, 0xe0, 0xe9, 0x10, 0x0c,
  0xed, 0xe3, 0x01, 0x0a, 0x01, 0x0a, 0xf6, 0xbe, 0x0b, 0xb5, 0xf8, 0xfc,
  0xfa, 0x01, 0xfa, 0x01, 0x21, 0xdc, 0xf4, 0x0d, 0x08, 0x06, 0xf5, 0x02,
  0x1b, 0xcf, 0x0d, 0x0c, 0xfe, 0x04, 0xed, 0xc1, 0x16, 0xe2, 0x14, 0x18,
  0xe1, 0xed, 0x0c, 0xff, 0x0b, 0x05, 0x0e, 0xfb, 0x17, 0xfa, 0xea, 0xf9,
  0x0d, 0x08, 0x0f, 0xf2, 0xf3, 0xf6, 0x03, 0xec, 0xe9, 0x01, 0x14, 0x04,
  0xe9, 0xef, 0x0d, 0xe8, 0xdf, 0xfa, 0x26, 0xe9, 0xf0, 0xdb, 0x11, 0xdf,
  0xd1, 0x11, 0x3c, 0xd0, 0xf7, 0x10, 0x17, 0xdb, 0x00, 0x03, 0x0a, 0x01,
  0x10, 0xf7, 0xee, 0xf7, 0x0b, 0x04, 0x0d, 0x18, 0xfd, 0xf5, 0x07, 0xec,
  0xf3, 0x01, 0x11, 0x0b, 0xee, 0xf7, 0x0c, 0xea, 0xf1, 0xfd, 0x07, 0xfd,
  0xea, 0xe9, 0x0d, 0xcf, 0xe3, 0xf0, 0x13, 0xf3, 0xf1, 0x11, 0x1e, 0xc2,
  0x01, 0x03, 0x09, 0x0c, 0x12, 0xf7, 0xe6, 0xf9, 0x0a, 0x0e, 0x0e, 0x0f,
  0xfb, 0xf5, 0x06, 0xea, 0xf9, 0x0a, 0x08, 0x04, 0xf1, 0xf3, 0x0c, 0xeb,
  0xef, 0xee, 0x13, 0x0b, 0xef, 0xe8, 0x0c, 0xca, 0xe5, 0xe7, 0xf4, 0xf5,
  0xf7, 0x10, 0x1a, 0xb5, 0x0d, 0x03, 0x15, 0x19, 0x11, 0xf7, 0xe6, 0xf6,
  0x11, 0x0b, 0x12, 0x12, 0xfd, 0xf7, 0x06, 0xec, 0xf9, 0x09, 0x0d, 0x12,
  0xf2, 0xf6, 0x0d, 0xe7, 0xee, 0x05, 0x15, 0x22, 0xf1, 0xe5, 0x09, 0xca,
  0xdd, 0xdd, 0x03, 0x1a, 0xf2, 0x11, 0x1a, 0xb7, 0x09, 0x00, 0x09, 0x1b,
  0x13, 0xf9, 0xe7, 0xf7, 0x09, 0x08, 0x13, 0x0c, 0xfb, 0xf3, 0x04, 0xf1,
  0xfa, 0x09, 0x0e, 0x26, 0xf0, 0xf6, 0x10, 0xec, 0xf1, 0xff, 0x01, 0x1c,
  0xf1, 0xec, 0x0c, 0xc3, 0xdb, 0xe8, 0xf8, 0x16, 0xf9, 0x12, 0x19, 0xae,
  0x1a, 0x08, 0x13, 0x03, 0x14, 0xf3, 0xe6, 0xf5, 0x10, 0x11, 0x09, 0x14,
  0xfa, 0xf8, 0x04, 0xeb, 0xfe, 0xfe, 0x0f, 0x13, 0xed, 0xf8, 0x11, 0xe9,
  0xf5, 0xdf, 0x0a, 0x3d, 0xee, 0xe9, 0x10, 0xb3, 0xda, 0xd4, 0x0a, 0x33,
  0xfb, 0x13, 0x19, 0xa9, 0xfe, 0xf6, 0x02, 0x0a, 0x14, 0xf6, 0xe8, 0xf3,
  0x02, 0x02, 0x18, 0x02, 0x05, 0xf9, 0x03, 0x07, 0x0b, 0xd6, 0x06, 0x06,
  0x04, 0xf2, 0x0d, 0xec, 0xf5, 0xca, 0xf3, 0x02, 0x09, 0xe0, 0x13, 0x06,
  0xdb, 0xdb, 0x05, 0x0c, 0xfd, 0x13, 0x1c, 0xe6, 0x00, 0xff, 0x10, 0xee,
  0x10, 0xfb, 0x03, 0xfb, 0x09, 0x06, 0x16, 0xf0, 0xfb, 0x00, 0x00, 0xf3,
  0xe9, 0x04, 0x1d, 0x0e, 0xfc, 0xf6, 0x01, 0xef, 0xdf, 0xf8, 0x2b, 0x02,
  0xf6, 0xf1, 0x09, 0xea, 0x9b, 0x06, 0x66, 0xe8, 0xe0, 0xf3, 0x08, 0xe0,
  0xfc, 0xfa, 0xfd, 0xfd, 0x0f, 0xfd, 0x02, 0xfb, 0x0d, 0x19, 0xfc, 0x10,
  0x01, 0xfc, 0x03, 0xfa, 0xfe, 0x0c, 0x05, 0x02, 0xfe, 0xfc, 0x02, 0xf5,
  0x06, 0xfa, 0xff, 0x11, 0xf5, 0xfc, 0x00, 0xe8, 0xd2, 0xdc, 0x2f, 0x22,
  0xe1, 0xf8, 0x1c, 0xd6, 0xfe, 0xfa, 0xfc, 0x02, 0x0f, 0xff, 0x05, 0x00,
  0x08, 0x16, 0xfb, 0x07, 0xff, 0xfa, 0x02, 0xf7, 0xfe, 0x0a, 0x02, 0x08,
  0xff, 0xf5, 0x00, 0xf5, 0x03, 0xf2, 0x0b, 0x0c, 0xf7, 0xfa, 0x01, 0xe6,
  0xdc, 0xda, 0x06, 0x25, 0xe7, 0xf5, 0x19, 0xd5, 0x09, 0xf9, 0x08, 0x09,
  0x0f, 0xff, 0x07, 0xfc, 0x11, 0x0f, 0x02, 0x08, 0x00, 0xfa, 0x03, 0xf8,
  0xff, 0x06, 0x0a, 0x0e, 0xff, 0xfa, 0x02, 0xf6, 0x03, 0xf7, 0x0f, 0x2f,
  0xf9, 0xf7, 0xfe, 0xe8, 0xdc, 0xda, 0x18, 0x3c, 0xe3, 0xf5, 0x1a, 0xd3,
  0x06, 0xf0, 0x02, 0x06, 0x10, 0xff, 0x0c, 0xfb, 0x0c, 0x01, 0x02, 0x05,
  0xfe, 0xf7, 0x02, 0x00, 0x01, 0x06, 0x04, 0x26, 0x00, 0xfa, 0x01, 0xf6,
  0x0b, 0xe3, 0xff, 0x1f, 0xf9, 0xfb, 0x02, 0xe3, 0xda, 0xde, 0x0f, 0x48,
  0xeb, 0xf5, 0x1b, 0xdb, 0x0c, 0x03, 0x0a, 0x01, 0x14, 0xf8, 0x0f, 0xfa,
  0x18, 0x19, 0xf6, 0x10, 0xff, 0xf6, 0x00, 0xfb, 0x10, 0xfc, 0x08, 0x10,
  0x00, 0xfc, 0x00, 0xf5, 0x19, 0xd3, 0x06, 0x38, 0xf6, 0xfd, 0x02, 0xd6,
  0xd6, 0xc3, 0x29, 0x69, 0xeb, 0xf5, 0x1b, 0xd7, 0xff, 0xe2, 0xfc, 0xfc,
  0x0c, 0x05, 0x08, 0xb5, 0x04, 0xd9, 0x09, 0x00, 0x00, 0xfd, 0xff, 0xf4,
  0x18, 0xcf, 0xfd, 0x0d, 0x09, 0xf9, 0xfe, 0x04, 0x0a, 0xb7, 0xec, 0x0d,
  0x02, 0xf7, 0xfe, 0xee, 0x03, 0xed, 0x14, 0x15, 0xef, 0xf7, 0x1a, 0xc3,
  0x13, 0xda, 0xf6, 0x0a, 0x01, 0xf8, 0x1e, 0xf9, 0xff, 0x01, 0xf5, 0x0f,
  0x0b, 0x02, 0x01, 0x10, 0x0e, 0xfa, 0xf5, 0x07, 0x04, 0x00, 0xfc, 0x0b,
  0x0f, 0x06, 0xe3, 0x12, 0x05, 0x18, 0x03, 0x16, 0x40, 0xff, 0xce, 0x2b,
  0xf9, 0xfc, 0xfa, 0x15, 0xff, 0xe3, 0xf6, 0x02, 0x05, 0xfa, 0x26, 0xf6,
  0x01, 0xf9, 0xf2, 0xfd, 0x05, 0xfe, 0xff, 0x11, 0x0b, 0x04, 0xfe, 0xfe,
  0x03, 0xf9, 0xfb, 0x01, 0x09, 0xff, 0x09, 0xf8, 0x07, 0x14, 0x05, 0x15,
  0x28, 0x0a, 0xf0, 0xe6, 0xfe, 0xf8, 0x00, 0x16, 0x0a, 0xdd, 0xf4, 0xf4,
  0x03, 0xfd, 0x34, 0xf6, 0xff, 0xff, 0xf6, 0x08, 0x08, 0xfe, 0x01, 0x0f,
  0x08, 0x10, 0x03, 0x06, 0x03, 0xff, 0xfa, 0x04, 0x09, 0x13, 0x09, 0x00,
  0x07, 0x19, 0x05, 0x11, 0x22, 0x0d, 0x03, 0xdf, 0xfa, 0xfb, 0x02, 0x15,
  0x01, 0xe0, 0xf6, 0x02, 0x06, 0xfe, 0x3b, 0xf5, 0x00, 0xff, 0xf4, 0xf8,
  0x07, 0xfd, 0x04, 0x0f, 0x07, 0xff, 0x02, 0x02, 0x02, 0xfa, 0xf8, 0x05,
  0x06, 0x17, 0x03, 0x07, 0x02, 0x14, 0x07, 0x10, 0x25, 0x0f, 0xed, 0xc4,
  0xfa, 0xf9, 0x01, 0x18, 0x04, 0xd0, 0x01, 0xed, 0x05, 0xfe, 0x46, 0xf4,
  0x02, 0xf4, 0xf4, 0x05, 0x06, 0x00, 0x01, 0x10, 0x09, 0x06, 0xfd, 0xfa,
  0x00, 0xfb, 0xf3, 0x06, 0x03, 0x0f, 0x04, 0xef, 0x05, 0x12, 0x06, 0x18,
  0x2a, 0x0f, 0xef, 0xdb, 0xfb, 0xfb, 0x01, 0x18, 0x02, 0xe4, 0x04, 0x07,
  0x06, 0xfa, 0x4b, 0xfb, 0x03, 0xf8, 0xf5, 0xf5, 0x0d, 0xfa, 0x02, 0x10,
  0x02, 0x09, 0x04, 0xeb, 0x00, 0xf9, 0xf5, 0x04, 0xfc, 0x1b, 0xff, 0xfe,
  0xfe, 0x14, 0x04, 0x25, 0x35, 0x24, 0xda, 0xc6, 0xfa, 0xfa, 0x03, 0x2d,
  0xfc, 0xc4, 0xf8, 0xee, 0x05, 0x07, 0x3e, 0x0b, 0xf6, 0xcf, 0xec, 0x05,
  0x00, 0xfe, 0xfc, 0xe8, 0xe4, 0x0b, 0x09, 0x13, 0xfe, 0xff, 0xf6, 0x03,
  0xf5, 0xe2, 0xe0, 0x0d, 0xfa, 0x1a, 0xfe, 0xfd, 0x0a, 0x06, 0xdd, 0xfb,
  0xf4, 0xf8, 0xfc, 0x04, 0x1c, 0xec, 0x02, 0x07, 0x06, 0xf6, 0xd9, 0x04,
  0x0c, 0x04, 0x03, 0xfc, 0xfb, 0x03, 0xfe, 0x07, 0x0b, 0x0d, 0xf8, 0x01,
  0x0e, 0x0d, 0x00, 0x0d, 0x1c, 0x10, 0xf9, 0x02, 0x08, 0x13, 0xef, 0x0a,
  0xfc, 0xf6, 0x0e, 0x05, 0x15, 0xdc, 0xef, 0x18, 0xff, 0xf5, 0x03, 0x0d,
  0x06, 0xfd, 0xd2, 0x0a, 0x02, 0x17, 0x01, 0x03, 0xfa, 0x01, 0x00, 0x09,
  0x05, 0x1e, 0xfc, 0x02, 0x0b, 0x07, 0xfe, 0x0c, 0x0e, 0x07, 0xf3, 0x26,
  0x10, 0x0e, 0xed, 0x15, 0x03, 0xfa, 0x09, 0x31, 0x0d, 0xdf, 0xef, 0x2a,
  0xfa, 0xee, 0xf8, 0x0f, 0x08, 0xfc, 0xcd, 0x06, 0x04, 0xfd, 0x01, 0xfd,
  0xf9, 0x03, 0x01, 0x05, 0x01, 0x08, 0xff, 0x01, 0x09, 0x08, 0xff, 0x0a,
  0x13, 0x0a, 0xf3, 0x13, 0x0c, 0x04, 0xf0, 0x18, 0x02, 0x07, 0x04, 0x34,
  0x10, 0xdd, 0xf3, 0x30, 0xf8, 0xef, 0xfc, 0x0d, 0x09, 0xfd, 0xc9, 0x0a,
  0x01, 0xf4, 0x04, 0x02, 0xf9, 0x01, 0x01, 0x04, 0x03, 0x0f, 0xfe, 0xf6,
  0x09, 0x09, 0xff, 0x0c, 0x0e, 0x04, 0xf5, 0x12, 0x0c, 0x0f, 0xef, 0x1c,
  0x0a, 0x0f, 0x0b, 0x23, 0x12, 0xdf, 0xf7, 0x31, 0xfb, 0xe6, 0x09, 0x0b,
  0x0a, 0xfb, 0xc5, 0x07, 0x04, 0x06, 0xf5, 0x03, 0xfa, 0x03, 0xff, 0x03,
  0x07, 0x0a, 0x0a, 0x03, 0x0c, 0x09, 0xfc, 0x0d, 0x12, 0x09, 0xf0, 0x13,
  0x0f, 0x10, 0xf2, 0x19, 0x04, 0x0f, 0x10, 0x2f, 0x0f, 0xde, 0xf7, 0x3a,
  0xf4, 0xf2, 0xf4, 0x1d, 0x0f, 0xfb, 0xc4, 0x0c, 0x0a, 0x01, 0x06, 0x0e,
  0xfb, 0xff, 0x01, 0x09, 0x00, 0x0a, 0xfa, 0xfe, 0x0d, 0x0a, 0xfd, 0x0c,
  0x18, 0x05, 0xec, 0xf9, 0x0e, 0x0b, 0xf2, 0x26, 0x08, 0x10, 0x07, 0x3a,
  0x13, 0xde, 0xf7, 0x41, 0xfc, 0xd8, 0x0f, 0x2f, 0x0a, 0x01, 0xce, 0xf8,
  0x0c, 0x03, 0x07, 0x03, 0xef, 0xfd, 0xfb, 0xf5, 0xfd, 0xe0, 0x0f, 0x02,
  0xfc, 0x0e, 0xfe, 0xe8, 0x11, 0xf0, 0xe9, 0x01, 0x03, 0x0e, 0xec, 0x09,
  0x26, 0xdb, 0xfa, 0x0b, 0x06, 0xdb, 0xf4, 0xe9, 0x17, 0x04, 0xfb, 0x0e,
  0xff, 0x01, 0xd8, 0x09, 0x08, 0x00, 0xf7, 0x03, 0xf9, 0xfb, 0x03, 0x00,
  0x0e, 0x02, 0xf0, 0xf0, 0xfe, 0x05, 0x09, 0x0a, 0x23, 0x09, 0xf2, 0xea,
  0xff, 0xfd, 0xfe, 0x0a, 0x45, 0x03, 0xd9, 0xe2, 0x12, 0xfd, 0xfd, 0x11,
  0x04, 0x09, 0x0b, 0x0d, 0xfb, 0xfe, 0xdb, 0x09, 0xf9, 0xf2, 0x11, 0x07,
  0xfc, 0xfe, 0x02, 0xf6, 0xfb, 0xfa, 0x03, 0x06, 0xfc, 0x01, 0x05, 0x02,
  0xf4, 0x08, 0x07, 0x08, 0x00, 0xf9, 0x02, 0x04, 0x19, 0x11, 0xe2, 0xe8,
  0x0e, 0xfb, 0xf4, 0x0d, 0xff, 0x08, 0x02, 0x10, 0xff, 0xfb, 0xce, 0x03,
  0x02, 0xef, 0x09, 0x03, 0xfa, 0x03, 0x03, 0xfa, 0xfd, 0xff, 0xfe, 0xfd,
  0xff, 0x05, 0x07, 0x01, 0xfd, 0xfd, 0x04, 0x09, 0xfe, 0xf8, 0x01, 0x02,
  0x11, 0x12, 0xea, 0xe3, 0x0d, 0xfd, 0xf6, 0x0b, 0xfc, 0x0a, 0x03, 0x09,
  0xff, 0xfc, 0xc8, 0x05, 0xfd, 0xf4, 0x0c, 0x07, 0xfb, 0x02, 0x02, 0xf9,
  0xfc, 0x03, 0xf9, 0x01, 0xfe, 0x04, 0x07, 0x00, 0xf9, 0x00, 0x02, 0xf7,
  0xff, 0xfe, 0x02, 0x01, 0x0e, 0x13, 0xed, 0xf0, 0x0e, 0xfe, 0xf8, 0x0d,
  0xfa, 0x10, 0x06, 0x14, 0xfe, 0xfa, 0xc1, 0x07, 0xfe, 0x08, 0x03, 0x03,
  0xfb, 0x01, 0x02, 0xf3, 0xfd, 0x08, 0x02, 0xfa, 0xff, 0x06, 0x07, 0x01,
  0xf6, 0x14, 0xff, 0x03, 0x02, 0x01, 0x02, 0xff, 0x10, 0x16, 0xf0, 0xd4,
  0x09, 0xfe, 0xf8, 0x0d, 0xf7, 0x04, 0xfa, 0x10, 0xff, 0xfe, 0xb9, 0x04,
  0xfb, 0xef, 0x13, 0x01, 0xf9, 0x05, 0x04, 0xfb, 0xf0, 0x04, 0xf8, 0x01,
  0xfe, 0x06, 0x08, 0x02, 0xef, 0x18, 0x01, 0xf1, 0x01, 0xfa, 0x03, 0x00,
  0x11, 0x21, 0xd0, 0xbd, 0x0d, 0xfd, 0xf9, 0x07, 0x0a, 0x13, 0x05, 0x2a,
  0x03, 0xf6, 0xc3, 0xcc, 0xff, 0x0e, 0x0c, 0x02, 0xfb, 0xfc, 0x04, 0xe8,
  0xf5, 0xe4, 0x03, 0xf9, 0xf9, 0x06, 0x05, 0xfa, 0x06, 0x14, 0x08, 0xf5,
  0x07, 0xfd, 0x06, 0x00, 0xf1, 0xe7, 0x0a, 0xfe, 0x0b, 0xfb, 0xf9, 0xf2,
  0x07, 0xf4, 0x0c, 0xf8, 0x12, 0xf5, 0xf1, 0xfa, 0x0c, 0x0a, 0x12, 0xf0,
  0xf9, 0x02, 0xfc, 0xfa, 0xef, 0x0b, 0x11, 0x0e, 0xfe, 0xfe, 0x00, 0xf8,
  0xe3, 0x00, 0x1f, 0x0b, 0xfd, 0xf8, 0xfe, 0xed, 0xad, 0x01, 0x4d, 0xf8,
  0xef, 0xfa, 0x02, 0xf0, 0xfa, 0xf4, 0xff, 0x04, 0x0f, 0xfb, 0xeb, 0xfe,
  0x0e, 0x1f, 0xfc, 0x0b, 0xfe, 0xfe, 0x01, 0x03, 0x01, 0x1a, 0x04, 0x05,
  0x02, 0x02, 0x01, 0xfe, 0x0a, 0xfe, 0xf6, 0x12, 0xfd, 0x00, 0xf7, 0xf3,
  0xe0, 0xe7, 0x29, 0x2c, 0xed, 0xfe, 0x0e, 0xf3, 0xfb, 0xf0, 0xff, 0x06,
  0x10, 0xfc, 0xea, 0x00, 0x09, 0x17, 0x00, 0x04, 0xfc, 0xfc, 0x01, 0xfc,
  0xff, 0x0f, 0x03, 0x03, 0x00, 0xfc, 0x00, 0xff, 0x06, 0xfb, 0xfe, 0x0f,
  0xff, 0xfa, 0xf9, 0xf4, 0xe6, 0xe8, 0x0c, 0x37, 0xf2, 0xf9, 0x0d, 0xf2,
  0x01, 0xf1, 0x08, 0x11, 0x0f, 0xfb, 0xeb, 0x00, 0x0f, 0x08, 0x04, 0x04,
  0xfd, 0xfb, 0x01, 0xfd, 0x02, 0x0e, 0x09, 0x01, 0x01, 0x00, 0x02, 0xfe,
  0x06, 0x01, 0x02, 0x26, 0xff, 0xfb, 0xf7, 0xf7, 0xe8, 0xe7, 0x16, 0x3a,
  0xef, 0xfb, 0x0e, 0xf2, 0x02, 0xe5, 0x04, 0x09, 0x12, 0xfc, 0xee, 0xfe,
  0x0b, 0x04, 0x00, 0x05, 0xfc, 0xfb, 0x00, 0x04, 0x04, 0x09, 0x0d, 0x18,
  0x02, 0xff, 0x01, 0x01, 0x0e, 0xee, 0xf6, 0x1b, 0x00, 0xfe, 0xfa, 0xf2,
  0xe5, 0xea, 0x15, 0x5f, 0xf5, 0xfb, 0x0d, 0xf3, 0x0b, 0xf9, 0x07, 0x10,
  0x16, 0xf7, 0xf0, 0x01, 0x16, 0x16, 0xf9, 0x0e, 0xfd, 0xf9, 0xff, 0x00,
  0x0d, 0x04, 0x09, 0x10, 0x01, 0x00, 0x01, 0x00, 0x1a, 0xd9, 0xfb, 0x28,
  0xff, 0xfd, 0xfb, 0xf1, 0xe3, 0xd8, 0x2a, 0x76, 0xf6, 0xfc, 0x0d, 0xf9,
  0xf9, 0xd4, 0x00, 0x0b, 0x0e, 0x01, 0xf1, 0xf7, 0x0c, 0xf2, 0x08, 0x03,
  0xfb, 0xfe, 0xfa, 0x03, 0x10, 0xe1, 0x0b, 0x0a, 0x04, 0xff, 0x00, 0xde,
  0x07, 0xc9, 0xd7, 0x08, 0x02, 0xf9, 0xf8, 0x06, 0x07, 0xd6, 0x02, 0x0e,
  0xef, 0xfd, 0x0c, 0xf9, 0x2f, 0xea, 0x02, 0x0f, 0xfe, 0xf2, 0xe2, 0xfb,
  0x0e, 0x0e, 0xfb, 0xff, 0xf5, 0xfe, 0x00, 0x10, 0x15, 0x0b, 0xf4, 0xff,
  0x00, 0x0a, 0xfd, 0x0d, 0x10, 0x09, 0xfa, 0x06, 0x07, 0x05, 0xf5, 0x06,
  0x25, 0x01, 0xe0, 0xf9, 0xfd, 0x21, 0xf6, 0x17, 0x02, 0xf8, 0x00, 0x16,
  0xfc, 0xf5, 0xeb, 0xfe, 0x01, 0xf7, 0x03, 0x09, 0xf9, 0x01, 0x04, 0x09,
  0x0a, 0x15, 0x03, 0x09, 0x02, 0x03, 0xfb, 0x0a, 0x03, 0x02, 0xfe, 0x0e,
  0x03, 0x03, 0xf6, 0x0e, 0x22, 0x15, 0xf8, 0xeb, 0x02, 0x1e, 0xf7, 0x20,
  0x03, 0xf1, 0xff, 0x0d, 0xff, 0xf3, 0xe8, 0xf9, 0x03, 0x04, 0x03, 0x0d,
  0xf7, 0x03, 0x03, 0x02, 0x06, 0x0a, 0x00, 0xff, 0x02, 0x07, 0xfe, 0x0e,
  0x03, 0x04, 0xfe, 0x07, 0x03, 0x01, 0xf6, 0x09, 0x1f, 0x12, 0xff, 0x0c,
  0xff, 0x1c, 0xf7, 0x1e, 0xf5, 0xf4, 0x01, 0x0e, 0xff, 0xf2, 0xe8, 0xfa,
  0x04, 0xf3, 0x04, 0x05, 0xf9, 0xff, 0x06, 0x02, 0x09, 0x06, 0xff, 0xf9,
  0x02, 0x06, 0xfe, 0x0a, 0x05, 0x0d, 0xf3, 0x0b, 0x02, 0xfe, 0xf9, 0x0c,
  0x15, 0x13, 0xf4, 0xf8, 0x01, 0x1e, 0xf7, 0x22, 0x00, 0xee, 0x03, 0x12,
  0x01, 0xf4, 0xe9, 0xf8, 0x04, 0xfd, 0x04, 0x08, 0xfa, 0x00, 0x05, 0xff,
  0x07, 0x08, 0x0b, 0xfc, 0x02, 0x02, 0xfe, 0x0e, 0x02, 0x0c, 0xf5, 0x0b,
  0x05, 0x03, 0xf7, 0x0b, 0x1a, 0x15, 0xf3, 0x02, 0xfd, 0x1f, 0xf3, 0x18,
  0x00, 0xf2, 0xfe, 0x22, 0x01, 0xf2, 0xe8, 0xfc, 0x02, 0xf8, 0x02, 0x08,
  0xf9, 0xff, 0x07, 0xfb, 0x02, 0x12, 0xfd, 0x04, 0x00, 0x03, 0x00, 0x0e,
  0xfd, 0x0c, 0xf4, 0x09, 0x06, 0xfa, 0xfb, 0x0d, 0x1c, 0x27, 0xe8, 0xf8,
  0xfc, 0x1c, 0xf6, 0x29, 0x00, 0xe9, 0xfe, 0x18, 0x09, 0xf2, 0xea, 0xb7,
  0xf9, 0x09, 0x04, 0x01, 0xf8, 0x00, 0x08, 0xf6, 0xf5, 0x05, 0x1c, 0x06,
  0x03, 0x05, 0xfd, 0xfe, 0xff, 0xd7, 0xce, 0x02, 0xfa, 0x00, 0xfb, 0x0f,
  0xde, 0xe5, 0xde, 0xf3, 0xf9, 0x1b, 0xf5, 0x00, 0xf9, 0xed, 0xf6, 0x12,
  0xfe, 0xfd, 0xee, 0x02, 0x06, 0x0e, 0xf5, 0xfa, 0xff, 0x07, 0xf7, 0x0c,
  0x08, 0x08, 0xea, 0x0c, 0x00, 0x10, 0xfb, 0x13, 0xf5, 0xfe, 0xfc, 0x1c,
  0x04, 0xfa, 0xf7, 0x0a, 0x33, 0x04, 0xd4, 0x1d, 0xcc, 0x3f, 0xf6, 0x14,
  0x02, 0xf8, 0xfd, 0x18, 0xfb, 0xfd, 0xee, 0x07, 0x04, 0xfd, 0xfa, 0xf5,
  0x02, 0x09, 0xfb, 0x0c, 0x06, 0x0d, 0xff, 0x06, 0x06, 0x0b, 0xf9, 0x0e,
  0x02, 0x06, 0x00, 0x01, 0xfb, 0xfe, 0xf8, 0x19, 0x23, 0x19, 0xf2, 0xd8,
  0xe1, 0x3b, 0xf9, 0x1c, 0xfc, 0xf4, 0x05, 0x01, 0xfb, 0xfc, 0xea, 0x04,
  0x03, 0x1a, 0x00, 0x05, 0xff, 0x08, 0xfa, 0x0a, 0x07, 0x0a, 0xfe, 0xfd,
  0x05, 0x0d, 0xfd, 0x17, 0x01, 0x01, 0xfd, 0x06, 0xfd, 0x00, 0xf8, 0x15,
  0x22, 0x11, 0x01, 0x0b, 0xd5, 0x38, 0xf8, 0x1b, 0xef, 0xf6, 0xfa, 0x0c,
  0xfd, 0xf9, 0xe9, 0x03, 0x07, 0x00, 0xfa, 0xf5, 0x01, 0x07, 0xfd, 0x0b,
  0x06, 0x0b, 0xfa, 0xf2, 0x02, 0x0b, 0xfd, 0x16, 0x06, 0x0b, 0xf2, 0x04,
  0xfa, 0xf9, 0xfd, 0x15, 0x19, 0x0d, 0xea, 0xd6, 0xd9, 0x39, 0xf6, 0x1e,
  0xf5, 0xf3, 0xf8, 0x07, 0xfc, 0xfe, 0xea, 0x03, 0x05, 0xfa, 0xfc, 0xfa,
  0x02, 0x06, 0xfe, 0x0d, 0x02, 0x0c, 0x08, 0xf5, 0x03, 0x09, 0xfc, 0x19,
  0x07, 0xf8, 0xfe, 0xf2, 0xfe, 0xfb, 0xf8, 0x16, 0x26, 0x0b, 0xe9, 0xec,
  0xd6, 0x3a, 0xf0, 0x11, 0xfd, 0xf1, 0xfc, 0x16, 0xfc, 0xfc, 0xe6, 0x06,
  0x00, 0xf5, 0xf4, 0xee, 0x00, 0x0a, 0xfd, 0x03, 0x00, 0x10, 0xfc, 0xf3,
  0x00, 0x05, 0xfd, 0x1b, 0xff, 0x04, 0xfe, 0x1a, 0xfe, 0xf8, 0xfb, 0x22,
  0x25, 0x1c, 0xfe, 0xf1, 0xd3, 0x39, 0xf4, 0x25, 0xe9, 0xee, 0xeb, 0x0a,
  0xfb, 0xf8, 0xe4, 0xdf, 0x04, 0xcb, 0xeb, 0x04, 0x00, 0x05, 0xfd, 0xf8,
  0xfc, 0xe3, 0x10, 0x05, 0xff, 0x08, 0xf9, 0xd9, 0xf6, 0xdf, 0xdd, 0x05,
  0xf2, 0xfe, 0xf9, 0x07, 0xd1, 0xdf, 0xdc, 0xe6, 0xd3, 0x3e, 0xf3, 0x1a,
  0x23, 0xde, 0xfc, 0x12, 0x05, 0xf2, 0xe8, 0xfb, 0x0b, 0x0c, 0xf9, 0x01,
  0xfc, 0x01, 0xfd, 0x10, 0x10, 0x09, 0xee, 0x04, 0x02, 0x0b, 0xfe, 0x10,
  0x0c, 0x0c, 0xf0, 0x10, 0x08, 0x0c, 0xf5, 0x0b, 0x31, 0xfe, 0xd6, 0x12,
  0xff, 0x14, 0xf5, 0x1c, 0xff, 0xec, 0xff, 0x13, 0x03, 0xf6, 0xeb, 0xff,
  0x04, 0x01, 0xfd, 0x03, 0xfd, 0x01, 0x01, 0x0e, 0x0a, 0x18, 0x01, 0x07,
  0x04, 0x04, 0xfc, 0x0a, 0x07, 0x06, 0xfc, 0x0c, 0x07, 0x0a, 0xf6, 0x14,
  0x26, 0x12, 0xf6, 0xee, 0x02, 0x11, 0xf5, 0x27, 0x01, 0xe4, 0xfc, 0x07,
  0x04, 0xf6, 0xea, 0xfa, 0x04, 0x07, 0x02, 0x09, 0xfc, 0x02, 0x01, 0x08,
  0x06, 0x11, 0x03, 0x00, 0x02, 0x08, 0xff, 0x0e, 0x07, 0x0d, 0xfc, 0x09,
  0x07, 0x06, 0xf7, 0x11, 0x20, 0x15, 0x03, 0x0a, 0xfe, 0x10, 0xf7, 0x25,
  0xf6, 0xe7, 0xfe, 0x12, 0x06, 0xf5, 0xeb, 0xfd, 0x04, 0xf5, 0x00, 0xff,
  0xfd, 0xff, 0x03, 0x09, 0x08, 0x0c, 0x00, 0xf5, 0x02, 0x05, 0xfe, 0x0c,
  0x06, 0x17, 0xf5, 0x0c, 0x03, 0x07, 0xfa, 0x13, 0x1d, 0x14, 0xf2, 0xe0,
  0x01, 0x11, 0xf7, 0x29, 0xfe, 0xdb, 0x04, 0x09, 0x07, 0xf8, 0xee, 0xfb,
  0x04, 0xfe, 0xfc, 0x07, 0xfe, 0x01, 0x01, 0x08, 0x08, 0x0d, 0x0e, 0xfb,
  0x02, 0x03, 0xfb, 0x11, 0x06, 0x12, 0xf5, 0x01, 0x08, 0x08, 0xf8, 0x15,
  0x21, 0x15, 0xf7, 0xf8, 0xfe, 0x13, 0xf3, 0x20, 0x00, 0xe6, 0x00, 0x21,
  0x09, 0xf5, 0xed, 0x03, 0x05, 0xf9, 0xff, 0x00, 0xff, 0x00, 0x03, 0x06,
  0xfe, 0x12, 0xff, 0xfa, 0x00, 0x02, 0xfe, 0x10, 0x00, 0x11, 0xf2, 0x03,
  0x06, 0x02, 0xfb, 0x23, 0x28, 0x28, 0xef, 0xfb, 0xfe, 0x12, 0xf6, 0x39,
  0xff, 0xce, 0xf7, 0x16, 0x0b, 0xf9, 0xf0, 0xe9, 0x01, 0xf3, 0xfc, 0x05,
  0xf8, 0xff, 0xfe, 0xf4, 0xed, 0xfd, 0x22, 0x09, 0xfd, 0x07, 0xfd, 0xd6,
  0xf9, 0xe6, 0xce, 0x06, 0xfb, 0x08, 0xf8, 0x0e, 0xf6, 0xd0, 0xd5, 0xf4,
  0xf2, 0x10, 0xf3, 0x21, 0xfe, 0xf6, 0xfc, 0x0c, 0x03, 0xff, 0xdd, 0x09,
  0x0e, 0x0e, 0xfe, 0xef, 0xfa, 0x06, 0xf9, 0x02, 0x02, 0x0c, 0xf6, 0x0c,
  0x02, 0x0d, 0xff, 0x0f, 0xfc, 0xfc, 0x10, 0x10, 0xfd, 0xf3, 0xfb, 0x06,
  0x11, 0x08, 0x0d, 0xfb, 0xbd, 0x28, 0xf6, 0x08, 0x03, 0xff, 0xff, 0x1b,
  0x00, 0xfe, 0xda, 0x0d, 0x05, 0x07, 0x00, 0xff, 0x02, 0x08, 0xfd, 0x00,
  0x00, 0x0d, 0x00, 0x0b, 0x06, 0x0a, 0xfb, 0x0a, 0x01, 0x06, 0x04, 0x13,
  0xf7, 0xf9, 0xf9, 0x12, 0x0c, 0x07, 0x00, 0xee, 0xd1, 0x27, 0x02, 0x09,
  0xf6, 0xfc, 0x01, 0x0c, 0x01, 0xfc, 0xd2, 0x0a, 0x08, 0x1d, 0xfe, 0x06,
  0xfc, 0x07, 0xfb, 0x01, 0x04, 0x09, 0xfa, 0x01, 0x08, 0x0a, 0xff, 0x12,
  0x05, 0xf3, 0x06, 0x13, 0xf6, 0xfa, 0xf9, 0x0d, 0x0f, 0x00, 0xf7, 0x1b,
  0xca, 0x24, 0x00, 0x0b, 0xf3, 0xfe, 0xfc, 0x0f, 0x03, 0xfb, 0xcc, 0x08,
  0x0e, 0x04, 0x01, 0xfd, 0xfe, 0x06, 0xff, 0x02, 0x01, 0x0d, 0xf9, 0xfc,
  0x04, 0x0b, 0x01, 0x12, 0x08, 0xfc, 0xfc, 0x1b, 0xf7, 0xf4, 0xfc, 0x0d,
  0x07, 0x00, 0xf4, 0x04, 0xcb, 0x25, 0x01, 0x0b, 0xf2, 0xfc, 0xfa, 0x11,
  0x01, 0xfd, 0xcb, 0x08, 0x09, 0xfe, 0xfb, 0xfc, 0xfd, 0x02, 0xff, 0x06,
  0x00, 0x11, 0x06, 0x07, 0x07, 0x0b, 0xff, 0x13, 0x0c, 0xe7, 0x00, 0x06,
  0xfb, 0xfb, 0xfa, 0x09, 0x12, 0x02, 0xea, 0x06, 0xcb, 0x26, 0xfd, 0x09,
  0xf6, 0xfc, 0xf7, 0x1a, 0x05, 0xf9, 0xc5, 0x07, 0x0c, 0xfe, 0xf7, 0xf8,
  0xfb, 0x08, 0xfe, 0xfd, 0x03, 0x0b, 0xf8, 0xfb, 0x05, 0x08, 0xff, 0x15,
  0x0c, 0xf2, 0x02, 0x3f, 0xf9, 0xf7, 0xfc, 0x0d, 0x0d, 0x04, 0x05, 0x09,
  0xc9, 0x23, 0x02, 0x0e, 0xee, 0xf3, 0xf8, 0x23, 0xfd, 0xfa, 0xc4, 0xc3,
  0x01, 0xe1, 0xeb, 0x05, 0xfc, 0x02, 0xfe, 0xf0, 0x09, 0xce, 0x04, 0x07,
  0x01, 0x0a, 0xf9, 0xf5, 0x0a, 0xf3, 0xf3, 0x06, 0xf8, 0xfa, 0xf9, 0xe1,
  0xde, 0xd1, 0xf1, 0xf8, 0xcd, 0x29, 0xff, 0xfc, 0x08, 0x11, 0x05, 0xf3,
  0xe4, 0x04, 0x2c, 0xfc, 0xf6, 0xfd, 0xfe, 0x06, 0x01, 0x03, 0x07, 0x0f,
  0x11, 0xfd, 0x0a, 0xfc, 0x09, 0x01, 0xf0, 0x03, 0x06, 0xf5, 0x03, 0x06,
  0x05, 0x0a, 0xfe, 0x08, 0xef, 0xfe, 0xf9, 0xfd, 0xec, 0x1c, 0xfa, 0x02,
  0x05, 0x0d, 0xf3, 0xfa, 0xea, 0x03, 0x3c, 0xf8, 0xf5, 0xe6, 0xf6, 0xfd,
  0xff, 0x06, 0x02, 0x06, 0x0b, 0xf3, 0xfa, 0x02, 0x07, 0xfe, 0xf2, 0x07,
  0x05, 0xf3, 0x03, 0xf8, 0x01, 0x04, 0xfe, 0x0c, 0x06, 0x09, 0x03, 0xf2,
  0xf9, 0x1a, 0x01, 0x07, 0x04, 0x11, 0xfc, 0xf4, 0xe9, 0x01, 0x49, 0xfa,
  0xf6, 0xf8, 0xef, 0x05, 0x01, 0x05, 0x00, 0x04, 0x08, 0xee, 0xf7, 0xfe,
  0x09, 0x00, 0xf3, 0x08, 0x03, 0xf9, 0x03, 0xf2, 0xff, 0x0c, 0xfd, 0x09,
  0x0e, 0x00, 0x07, 0xf6, 0xf5, 0x1a, 0xff, 0x0e, 0x03, 0x12, 0xf8, 0xe1,
  0xe7, 0x02, 0x4e, 0xf7, 0xf7, 0xfc, 0xf3, 0xfd, 0x01, 0x04, 0x03, 0x03,
  0x09, 0xe7, 0xfa, 0x05, 0x07, 0xff, 0xf2, 0x08, 0x08, 0xef, 0xf4, 0xfa,
  0x01, 0x00, 0xfe, 0x0d, 0x03, 0x06, 0x03, 0x03, 0xf7, 0x17, 0xfb, 0x0c,
  0x01, 0x19, 0xf3, 0xf4, 0xe5, 0x01, 0x51, 0xf4, 0xf9, 0xf0, 0x03, 0xfc,
  0x01, 0x03, 0x07, 0x01, 0x04, 0xed, 0xec, 0xf2, 0x07, 0xfb, 0xf4, 0x02,
  0x04, 0xe6, 0x08, 0x00, 0xfe, 0xff, 0xfc, 0x0f, 0x07, 0x00, 0xf9, 0xf0,
  0xf4, 0x18, 0xfc, 0x0d, 0xfe, 0x11, 0xfb, 0xf1, 0xe2, 0x02, 0x58, 0xf0,
  0xf4, 0xf5, 0xf3, 0xfb, 0xfe, 0xff, 0x06, 0xfa, 0x11, 0xfa, 0xf6, 0x10,
  0x09, 0xfd, 0xf2, 0x04, 0x00, 0x03, 0x04, 0xfe, 0x03, 0x01, 0xfa, 0xfe,
  0xff, 0x09, 0xf8, 0xd4, 0xed, 0x13, 0xfe, 0x06, 0x0b, 0x2d, 0xf2, 0xd8,
  0xed, 0x00, 0x48, 0x0a, 0xdd, 0xf5, 0xfc, 0xf3, 0x03, 0x08, 0x13, 0x05,
  0x08, 0xd8, 0xf5, 0x00, 0x0f, 0xfe, 0xf1, 0x0e, 0x07, 0xea, 0xf3, 0x08,
  0xf1, 0x08, 0xfc, 0xe3, 0xf4, 0x0d, 0xf4, 0xf6, 0xff, 0x16, 0xfd, 0xf3,
  0x18, 0xdd, 0xfb, 0x13, 0x07, 0xf2, 0xe5, 0xfb, 0x0c, 0x0d, 0xf9, 0x00,
  0xfd, 0x02, 0xfb, 0x0e, 0x0b, 0x0a, 0xed, 0x06, 0x00, 0x0c, 0xff, 0x0f,
  0x04, 0x0b, 0xf1, 0x13, 0x07, 0x08, 0xf5, 0x08, 0x2e, 0xfe, 0xd7, 0x19,
  0xfc, 0x19, 0xf6, 0x1a, 0x00, 0xeb, 0x00, 0x13, 0x05, 0xf7, 0xe5, 0x00,
  0x06, 0x05, 0xfd, 0x00, 0xfd, 0x01, 0x00, 0x0f, 0x08, 0x1a, 0x02, 0x08,
  0x04, 0x05, 0xfd, 0x0a, 0x07, 0x07, 0xfb, 0x09, 0x05, 0x08, 0xf6, 0x13,
  0x23, 0x12, 0xf7, 0xf0, 0xff, 0x16, 0xf5, 0x26, 0x00, 0xe2, 0xff, 0x06,
  0x06, 0xf7, 0xe3, 0xfc, 0x05, 0x0b, 0x04, 0x08, 0xfc, 0x02, 0x00, 0x09,
  0x05, 0x13, 0x04, 0xfe, 0x01, 0x08, 0x00, 0x0f, 0x06, 0x0e, 0xf9, 0x0e,
  0x07, 0x04, 0xf7, 0x11, 0x1d, 0x14, 0x05, 0x09, 0xfb, 0x14, 0xf7, 0x23,
  0xf4, 0xe5, 0xff, 0x14, 0x08, 0xf5, 0xe4, 0xfe, 0x05, 0xf7, 0x00, 0xfd,
  0xfe, 0x00, 0x01, 0x0a, 0x08, 0x0f, 0x01, 0xf5, 0x02, 0x06, 0xff, 0x0c,
  0x06, 0x19, 0xf5, 0x08, 0x02, 0x05, 0xfa, 0x12, 0x1c, 0x12, 0xf3, 0xe4,
  0xfe, 0x16, 0xf7, 0x28, 0xfe, 0xd9, 0x04, 0x09, 0x09, 0xf9, 0xe7, 0xfd,
  0x06, 0xff, 0xfc, 0x05, 0xfe, 0x02, 0xff, 0x09, 0x07, 0x0e, 0x10, 0xfc,
  0x01, 0x04, 0xfd, 0x12, 0x06, 0x13, 0xf4, 0x01, 0x07, 0x06, 0xf7, 0x14,
  0x20, 0x12, 0xf9, 0x00, 0xfb, 0x17, 0xf3, 0x1d, 0x02, 0xe5, 0x01, 0x22,
  0x0a, 0xf6, 0xe5, 0x05, 0x05, 0xfc, 0xfe, 0x00, 0x00, 0x01, 0x01, 0x06,
  0xff, 0x14, 0x01, 0xfc, 0xff, 0x02, 0xff, 0x12, 0x01, 0x0a, 0xf1, 0x03,
  0x05, 0x01, 0xfb, 0x24, 0x27, 0x25, 0xf2, 0xf0, 0xfc, 0x17, 0xf5, 0x37,
  0xef, 0xca, 0xfe, 0x16, 0x0b, 0xf9, 0xe9, 0xf3, 0x09, 0xeb, 0xfe, 0x07,
  0xf9, 0x00, 0xfb, 0xf7, 0xee, 0xec, 0x22, 0x08, 0xfc, 0x07, 0xfe, 0xf4,
  0xf5, 0xe1, 0xd2, 0x05, 0xfb, 0x05, 0xf7, 0xef, 0xee, 0xd1, 0xdf, 0xf2,
  0xef, 0x16, 0xf3, 0x0d, 0x0d, 0x08, 0x02, 0x05, 0x0e, 0xfe, 0xf7, 0xf9,
  0x01, 0xfd, 0xff, 0x06, 0xfa, 0xf1, 0x06, 0xf2, 0xf6, 0xf7, 0x02, 0xf7,
  0xe6, 0xed, 0x10, 0xec, 0xf9, 0x00, 0xff, 0xd9, 0xf6, 0xe7, 0x13, 0xeb,
  0x21, 0x0c, 0xea, 0xdb, 0x2a, 0x07, 0x1a, 0xea, 0x00, 0x06, 0x0d, 0xf7,
  0x09, 0xf9, 0xfe, 0xf3, 0x00, 0xeb, 0x12, 0x12, 0xfd, 0xf2, 0x07, 0xec,
  0xf2, 0xee, 0x0f, 0x03, 0xe8, 0xf3, 0x0f, 0xe9, 0xe8, 0x00, 0x0d, 0xe6,
  0xf3, 0xed, 0x17, 0xd2, 0x03, 0x06, 0xea, 0xcf, 0x1a, 0x04, 0x0f, 0xd2,
  0x09, 0x07, 0x0b, 0x05, 0x0a, 0xf9, 0xf6, 0xf3, 0x03, 0xf1, 0x14, 0x0b,
  0xfe, 0xf4, 0x08, 0xee, 0xf8, 0x03, 0x0b, 0xff, 0xea, 0xf3, 0x0f, 0xe6,
  0xe7, 0xfc, 0x0e, 0xf9, 0xf8, 0xee, 0x14, 0xd0, 0xfa, 0x01, 0xef, 0xba,
  0x1f, 0x08, 0x0c, 0xc2, 0x0e, 0x07, 0x13, 0x10, 0x09, 0xf9, 0xf8, 0xf3,
  0x02, 0x00, 0x12, 0x0f, 0xff, 0xf6, 0x05, 0xee, 0xf7, 0x00, 0x0a, 0x0a,
  0xec, 0xf2, 0x0e, 0xe1, 0xe3, 0x12, 0x15, 0xfb, 0xf7, 0xf1, 0x12, 0xcc,
  0xf5, 0xf7, 0xef, 0xd7, 0x1b, 0x09, 0x0c, 0xc3, 0x0b, 0x0a, 0x0a, 0x0f,
  0x0b, 0xfa, 0xf8, 0xf7, 0xfe, 0x0a, 0x15, 0x0d, 0xfe, 0xf6, 0x04, 0xec,
  0xf7, 0x00, 0x0a, 0x0c, 0xe9, 0xf4, 0x12, 0xe6, 0xdf, 0x25, 0x03, 0x03,
  0xf6, 0xf1, 0x13, 0xcb, 0xf1, 0xfd, 0xf3, 0xc4, 0x1d, 0x09, 0x0b, 0xb6,
  0x1a, 0x06, 0x13, 0xf5, 0x07, 0xfa, 0xf5, 0xf5, 0xfb, 0xfd, 0x15, 0x0f,
  0xff, 0xfa, 0x05, 0xef, 0xef, 0xfd, 0x0f, 0xfe, 0xe6, 0xf5, 0x14, 0xe4,
  0xd6, 0x06, 0x0c, 0xf9, 0xf4, 0xee, 0x16, 0xc1, 0xf7, 0x00, 0xdd, 0xc7,
  0x21, 0x0c, 0x0a, 0xb0, 0x0c, 0x0c, 0x0e, 0xfb, 0x0f, 0xf5, 0xfe, 0xf2,
  0x01, 0x08, 0x1d, 0x05, 0x0a, 0xf9, 0x04, 0xe4, 0xf1, 0xfd, 0x07, 0xfa,
  0xfb, 0xef, 0x14, 0x04, 0xe9, 0xd0, 0xf5, 0xf5, 0x0e, 0xe8, 0x1e, 0xfd,
  0xde, 0xe9, 0x08, 0xfd, 0x1e, 0x08, 0x0f, 0x15, 0x17, 0xe6, 0xf9, 0x13,
  0x0e, 0xf6, 0xeb, 0xfa, 0x08, 0x06, 0xf7, 0x05, 0xfe, 0xfa, 0xff, 0x03,
  0x03, 0x00, 0xef, 0x00, 0xf3, 0xff, 0x08, 0x03, 0x02, 0x0a, 0xee, 0xfc,
  0xff, 0xfc, 0x03, 0x01, 0x46, 0x05, 0xcb, 0x07, 0x12, 0x12, 0x06, 0x0b,
  0xfe, 0xf0, 0x06, 0x09, 0x0a, 0xf6, 0xee, 0xfa, 0x04, 0xf8, 0x06, 0x07,
  0xff, 0xf9, 0x02, 0x02, 0xff, 0x07, 0x08, 0x01, 0xf6, 0xfd, 0x06, 0xfb,
  0xf8, 0x08, 0x05, 0xf9, 0xfe, 0xfe, 0x07, 0xfa, 0x22, 0x12, 0xe7, 0xdb,
  0x0c, 0x0d, 0xff, 0x05, 0x07, 0xea, 0x04, 0x05, 0x0b, 0xf7, 0xe9, 0xf6,
  0x05, 0xff, 0x0d, 0x0a, 0xff, 0xfb, 0x03, 0x00, 0x00, 0x12, 0x09, 0x00,
  0xf5, 0x00, 0x08, 0xfd, 0xf7, 0x0b, 0x04, 0x05, 0x01, 0xfc, 0x06, 0xf8,
  0x16, 0x12, 0xf9, 0xd9, 0x0b, 0x0f, 0xff, 0xfa, 0xfe, 0xec, 0x08, 0x18,
  0x0c, 0xf6, 0xeb, 0xf9, 0x05, 0xfc, 0x08, 0x02, 0x01, 0xfb, 0x03, 0x01,
  0x00, 0x0b, 0x04, 0xfa, 0xf7, 0xfd, 0x07, 0xf9, 0xf4, 0x1e, 0x06, 0x01,
  0xfd, 0xff, 0x07, 0xf5, 0x15, 0x0b, 0xe9, 0xc7, 0x0b, 0x11, 0xff, 0xff,
  0x04, 0xe4, 0x07, 0x0b, 0x0e, 0xf9, 0xed, 0xfb, 0x03, 0x04, 0x05, 0x09,
  0x00, 0xfd, 0x00, 0xff, 0x00, 0x0c, 0x10, 0x03, 0xf4, 0xfd, 0x06, 0x00,
  0xf3, 0x28, 0xfb, 0xf9, 0x01, 0xff, 0x06, 0xf7, 0x17, 0x0f, 0xee, 0xd1,
  0x0a, 0x11, 0xfc, 0xf0, 0x0d, 0xea, 0x0b, 0x12, 0x0d, 0xf7, 0xea, 0x01,
  0x01, 0xf8, 0x09, 0xff, 0x03, 0xff, 0x02, 0x00, 0xf3, 0x0d, 0x07, 0xf5,
  0xf1, 0xfb, 0x09, 0x00, 0xe9, 0x13, 0xfd, 0x01, 0xfc, 0xfb, 0x09, 0x02,
  0x23, 0x1f, 0xe1, 0xcb, 0x0d, 0x14, 0xfc, 0x03, 0x00, 0xd8, 0xfe, 0x0d,
  0x0f, 0xf8, 0xf0, 0xf8, 0x08, 0xde, 0x0b, 0x08, 0x01, 0xfb, 0xfb, 0xe9,
  0xe4, 0xe4, 0x23, 0x05, 0xf7, 0xfc, 0x08, 0x01, 0xeb, 0xf5, 0xe0, 0xff,
  0x04, 0xfc, 0x0a, 0x01, 0xe1, 0xdc, 0xe2, 0xf5, 0x01, 0x10, 0xfd, 0x0a,
  0x0b, 0x01, 0xf9, 0x01, 0xf3, 0x02, 0x34, 0xf6, 0xef, 0xf4, 0xf2, 0x1c,
  0x0a, 0xf8, 0x09, 0x09, 0x0d, 0xee, 0xfa, 0xf5, 0xf8, 0xf2, 0x00, 0xfa,
  0x10, 0x00, 0xde, 0xec, 0x03, 0x0d, 0x0d, 0x08, 0x47, 0x00, 0xad, 0x0e,
  0x2e, 0x02, 0x0c, 0x04, 0x02, 0xfe, 0xfd, 0xed, 0xf8, 0xfe, 0x43, 0xec,
  0xf5, 0xd9, 0xff, 0xfd, 0x02, 0xf8, 0x04, 0x01, 0x02, 0xe3, 0x02, 0xfa,
  0xf5, 0xf1, 0x02, 0xf5, 0xf6, 0xf9, 0x0e, 0xda, 0x03, 0x05, 0x14, 0xf6,
  0x21, 0x14, 0xdd, 0xc2, 0x27, 0xfb, 0x00, 0xfa, 0x12, 0x00, 0xff, 0xee,
  0xf6, 0x00, 0x50, 0xed, 0xf5, 0xe3, 0x00, 0x07, 0x08, 0xfa, 0x05, 0x02,
  0x02, 0xf9, 0x05, 0xfb, 0xf6, 0xf7, 0x00, 0xf2, 0xf3, 0x0e, 0x09, 0xe8,
  0x04, 0x0e, 0x12, 0xf5, 0x18, 0x12, 0xfd, 0xad, 0x25, 0x02, 0x00, 0xf2,
  0x0b, 0x01, 0x00, 0xee, 0xf6, 0x00, 0x58, 0xed, 0xf1, 0xfa, 0xfb, 0x02,
  0x06, 0xfb, 0x04, 0x02, 0x01, 0xea, 0x03, 0x01, 0xf7, 0xf1, 0xfd, 0xf0,
  0xf0, 0x11, 0x06, 0xdf, 0x02, 0x0a, 0x12, 0xf2, 0x15, 0x10, 0xeb, 0xbe,
  0x25, 0x00, 0xfd, 0xf4, 0x0d, 0x03, 0x00, 0xec, 0xf5, 0x00, 0x5f, 0xef,
  0xf4, 0xf8, 0x08, 0x06, 0x06, 0xfe, 0x04, 0xfc, 0x00, 0xf0, 0xf4, 0xee,
  0xf3, 0xf1, 0xfe, 0xef, 0xe6, 0x22, 0x0b, 0xe3, 0xff, 0x03, 0x10, 0xfb,
  0x15, 0x10, 0xe9, 0xa1, 0x23, 0x01, 0xfe, 0xec, 0x0d, 0xff, 0x0a, 0xe6,
  0xef, 0x03, 0x65, 0xef, 0xeb, 0xef, 0x06, 0xf4, 0x0a, 0xfa, 0x06, 0x00,
  0xf7, 0xfa, 0x05, 0xff, 0xf2, 0xf2, 0xff, 0xee, 0xd9, 0x2a, 0x07, 0xc2,
  0xfe, 0x06, 0x0f, 0xf6, 0x1e, 0x23, 0xcf, 0xa1, 0x22, 0x01, 0xfd, 0xef,
  0x16, 0x12, 0x05, 0xcc, 0xfd, 0x01, 0x5d, 0xf5, 0xeb, 0xd5, 0x07, 0xfe,
  0x0c, 0x00, 0x09, 0xdd, 0xe3, 0xee, 0x08, 0xfd, 0xff, 0xf1, 0x03, 0x09,
  0xe6, 0xcd, 0x03, 0xfe, 0x00, 0x09, 0x14, 0xe0, 0xf6, 0xf7, 0xe7, 0xf3,
  0x26, 0xfd, 0xfe, 0xc1, 0x0b, 0x0a, 0x09, 0xf1, 0xf0, 0xff, 0x32, 0xf5,
  0xf6, 0xfd, 0x03, 0x09, 0x02, 0xfe, 0x08, 0x08, 0x06, 0xf9, 0x12, 0xfe,
  0x00, 0xf7, 0xf5, 0xf6, 0xfa, 0xf6, 0x05, 0x01, 0x02, 0x06, 0x06, 0xfd,
  0xdf, 0xff, 0x06, 0xfb, 0x01, 0x0d, 0x04, 0xf5, 0x03, 0x03, 0xf6, 0xf2,
  0xf6, 0xff, 0x42, 0xef, 0xfb, 0xeb, 0xf7, 0x02, 0xff, 0xff, 0x04, 0x03,
  0x08, 0xf5, 0xff, 0x04, 0xff, 0xf7, 0xf9, 0xfc, 0x03, 0xf1, 0x04, 0xf0,
  0xff, 0x04, 0x05, 0xf8, 0xfb, 0xff, 0x0b, 0xf2, 0x04, 0x0b, 0x0b, 0xf3,
  0x07, 0x07, 0xfc, 0xf2, 0xf4, 0xff, 0x51, 0xf4, 0xf8, 0xfb, 0xf4, 0x08,
  0x02, 0xfd, 0x04, 0x00, 0x05, 0xf6, 0xfe, 0x01, 0x01, 0xf8, 0xf7, 0xfb,
  0xfe, 0xff, 0x06, 0xf4, 0xff, 0x0a, 0x04, 0xf6, 0x01, 0xf7, 0x0a, 0xe5,
  0x04, 0x0c, 0x08, 0xf3, 0x0b, 0x08, 0xfe, 0xe9, 0xf2, 0x00, 0x59, 0xf1,
  0xfa, 0x02, 0xf7, 0x03, 0x02, 0xfd, 0x05, 0xff, 0x07, 0xeb, 0x03, 0x08,
  0x00, 0xf7, 0xf6, 0xfa, 0x01, 0xf9, 0xfe, 0x01, 0x01, 0x01, 0x03, 0xf8,
  0xf9, 0xfb, 0x08, 0xfc, 0x04, 0x09, 0x05, 0xf3, 0x0a, 0x08, 0xf9, 0xf1,
  0xf2, 0x00, 0x60, 0xee, 0xfc, 0xf3, 0x08, 0x03, 0x02, 0xfd, 0x07, 0xff,
  0x04, 0xee, 0xf2, 0x00, 0xff, 0xf4, 0xf8, 0xf6, 0xfd, 0xf4, 0x07, 0x02,
  0xfc, 0xff, 0x02, 0xfb, 0xfb, 0xf8, 0xff, 0xeb, 0x05, 0x0b, 0x06, 0xf2,
  0x0a, 0x0b, 0x05, 0xef, 0xef, 0xff, 0x69, 0xed, 0xfa, 0x00, 0xf5, 0x00,
  0x01, 0xf8, 0x06, 0xfa, 0x0e, 0xf8, 0x02, 0x10, 0x00, 0xf7, 0xf7, 0xf6,
  0xfc, 0x00, 0x05, 0xfd, 0xff, 0x02, 0x01, 0xea, 0xf7, 0xf9, 0x01, 0xe9,
  0x00, 0x08, 0x07, 0xef, 0x09, 0x15, 0xfd, 0xce, 0xf9, 0x02, 0x59, 0x03,
  0xe4, 0xef, 0x04, 0xf6, 0x06, 0x04, 0x0f, 0xff, 0x05, 0xcc, 0xfd, 0x05,
  0x0d, 0xf6, 0xf8, 0x01, 0xfd, 0xc3, 0x07, 0x07, 0xf9, 0x05, 0x04, 0xf5,
  0xf2, 0x00, 0xfb, 0xfd, 0x09, 0x08, 0x07, 0xff, 0xf1, 0x02, 0xfb, 0xf7,
  0xf2, 0x0a, 0x1b, 0x0b, 0xf7, 0xf4, 0xfe, 0x06, 0x0c, 0x09, 0x00, 0x07,
  0x0b, 0xfd, 0x00, 0xff, 0x19, 0x08, 0xf7, 0x0d, 0x1e, 0x02, 0xf2, 0x0f,
  0x07, 0x1f, 0xf9, 0x1a, 0xf9, 0xf4, 0x0b, 0x18, 0xf8, 0xcc, 0xed, 0x10,
  0xff, 0xff, 0xf6, 0xf9, 0xf9, 0x0b, 0x15, 0x0a, 0xf9, 0x0a, 0xf3, 0xf0,
  0x05, 0x08, 0xfa, 0x0a, 0x07, 0xfb, 0xf1, 0xfc, 0x12, 0x03, 0xf8, 0x0b,
  0x11, 0xff, 0xfd, 0x11, 0x10, 0x14, 0xf7, 0x23, 0xfb, 0xf4, 0x05, 0x21,
  0xfd, 0xd0, 0xf3, 0x1c, 0xfd, 0x01, 0xf1, 0xf7, 0xf7, 0x0c, 0x1f, 0x0c,
  0xfa, 0xf7, 0xed, 0xf3, 0x07, 0x07, 0xfb, 0x0e, 0x03, 0xf4, 0xf6, 0xfb,
  0x12, 0x05, 0xf5, 0x09, 0x16, 0x05, 0xfb, 0x04, 0x09, 0x17, 0xf9, 0x27,
  0x00, 0xfe, 0x05, 0x1c, 0xfc, 0xd0, 0xf7, 0x2c, 0xfe, 0x01, 0xec, 0xe6,
  0xf8, 0x0e, 0x1d, 0x0c, 0xf6, 0xff, 0xf0, 0xf7, 0x04, 0x07, 0xfc, 0x0c,
  0x01, 0xf6, 0xf7, 0xfc, 0x10, 0x05, 0xf5, 0x10, 0x14, 0xec, 0xfc, 0xfa,
  0x0b, 0x19, 0xf9, 0x28, 0x0b, 0x0a, 0x0b, 0x19, 0xfe, 0xce, 0xf8, 0x29,
  0xf9, 0x00, 0xfb, 0xe8, 0xf5, 0x09, 0x1d, 0x09, 0xfc, 0xf9, 0xea, 0xf4,
  0x04, 0x07, 0xfd, 0x0c, 0x05, 0xf9, 0xeb, 0xf0, 0x12, 0x07, 0xf0, 0x09,
  0x15, 0xec, 0x06, 0xf7, 0x0a, 0x16, 0xfb, 0x2b, 0x09, 0x06, 0x0b, 0x1e,
  0xfc, 0xcd, 0xfe, 0x40, 0xe3, 0x02, 0xed, 0xf2, 0xf9, 0x0c, 0x20, 0x09,
  0xff, 0x00, 0xf6, 0xfa, 0x06, 0x02, 0xfc, 0x12, 0x08, 0xf8, 0xf3, 0xe9,
  0x17, 0x06, 0xef, 0x09, 0x1c, 0x09, 0xfe, 0xe0, 0x09, 0x1b, 0xf4, 0x30,
  0x09, 0x05, 0x00, 0x00, 0xfb, 0xcb, 0xfe, 0x37, 0x01, 0x04, 0x03, 0xfb,
  0xf0, 0x12, 0x19, 0x0e, 0xfd, 0xe5, 0xea, 0xfe, 0xf9, 0x02, 0xfc, 0x00,
  0x07, 0xf1, 0xea, 0x01, 0x01, 0x0b, 0xf1, 0xf8, 0x19, 0x0b, 0x1e, 0x05,
  0xfd, 0x1f, 0xee, 0xef, 0x3b, 0xca, 0x15, 0x0f, 0xff, 0xcc, 0xf7, 0xf8,
  0xf4, 0x1c, 0xfd, 0x06, 0xff, 0x0b, 0xd9, 0x0e, 0x02, 0xfb, 0xfc, 0xfb,
  0xfa, 0xfc, 0x01, 0xf3, 0xff, 0x00, 0xf7, 0xf4, 0xfb, 0x02, 0x0b, 0x00,
  0x10, 0x00, 0x02, 0xe3, 0xfa, 0xee, 0x02, 0xfd, 0x20, 0x05, 0xf7, 0xd8,
  0x0b, 0xfe, 0x04, 0xfd, 0x06, 0x19, 0x0e, 0x06, 0xfb, 0x05, 0xd5, 0x0e,
  0xf9, 0xf7, 0x14, 0x02, 0xfe, 0x00, 0x00, 0xec, 0xf2, 0xf0, 0x02, 0x00,
  0xf9, 0x04, 0x08, 0xfe, 0xee, 0x07, 0x05, 0x03, 0xfa, 0xee, 0x05, 0xf6,
  0xfd, 0x08, 0xea, 0xf4, 0x07, 0xff, 0xf9, 0xf4, 0xfa, 0x1d, 0x09, 0x0f,
  0xfd, 0x02, 0xc3, 0x0b, 0x01, 0xf3, 0x0d, 0xfb, 0xfc, 0x03, 0x00, 0xf4,
  0xf8, 0xf4, 0xfd, 0xfb, 0xfc, 0x04, 0x0a, 0xfc, 0xf5, 0xf3, 0x02, 0x00,
  0xf8, 0xed, 0x04, 0xf8, 0xfa, 0x06, 0xea, 0xf4, 0x08, 0x00, 0xf9, 0xf3,
  0xfe, 0x1c, 0x05, 0x04, 0xfd, 0x03, 0xbb, 0x0b, 0xfd, 0xfc, 0x0e, 0x05,
  0xfc, 0x04, 0xfe, 0xf4, 0xf5, 0x02, 0xf9, 0x03, 0xfc, 0x05, 0x0a, 0xfc,
  0xf4, 0xf3, 0x05, 0xed, 0xfc, 0xf3, 0x04, 0xf5, 0xf8, 0x04, 0xf6, 0x0a,
  0x08, 0x01, 0xfb, 0xf1, 0xf8, 0x2b, 0x02, 0x13, 0xfb, 0x01, 0xaf, 0x0f,
  0xfc, 0x0b, 0x07, 0xfc, 0xfc, 0x02, 0xff, 0xef, 0xf5, 0x02, 0x00, 0xf7,
  0xfd, 0x08, 0x0e, 0xfb, 0xf3, 0x06, 0x03, 0x03, 0xfb, 0xf6, 0x04, 0xf1,
  0xf7, 0x06, 0xf8, 0xeb, 0x04, 0x00, 0xfc, 0xf2, 0xf7, 0x16, 0xf9, 0xfc,
  0xfa, 0x06, 0xa6, 0x08, 0xf8, 0xf6, 0x13, 0x03, 0xf7, 0x09, 0xff, 0xf5,
  0xef, 0xfb, 0xfa, 0xfa, 0xfd, 0x07, 0x0d, 0xfc, 0xf0, 0x07, 0x07, 0xf6,
  0xfd, 0xf2, 0x05, 0xec, 0xf2, 0x03, 0xe8, 0xe0, 0x07, 0x01, 0xfb, 0xdd,
  0x03, 0x34, 0x09, 0x22, 0xfb, 0xf8, 0xb4, 0xf4, 0x07, 0xed, 0x0d, 0x02,
  0x00, 0xfe, 0x02, 0x00, 0x06, 0xe5, 0xeb, 0xee, 0xf8, 0x04, 0x0b, 0xec,
  0x07, 0x0d, 0x23, 0xef, 0x09, 0xf0, 0x0a, 0xf0, 0xfa, 0xec, 0x24, 0x00,
  0x0c, 0x01, 0xfe, 0xca, 0x0f, 0x03, 0x01, 0x0d, 0x04, 0xfb, 0xc9, 0x03,
  0x0b, 0x09, 0xfe, 0xf8, 0xf3, 0xfd, 0xfc, 0x00, 0x04, 0x0c, 0xf3, 0xf9,
  0xfb, 0x0b, 0x06, 0x07, 0x03, 0x07, 0x03, 0xfc, 0x02, 0xf3, 0xf4, 0xf8,
  0x11, 0x01, 0xf0, 0xe7, 0x0d, 0x19, 0xfe, 0x0b, 0x01, 0x09, 0x0c, 0x12,
  0xfe, 0xfd, 0xc3, 0x09, 0x01, 0x02, 0x0f, 0x04, 0xf9, 0x01, 0x01, 0xfc,
  0xfc, 0x0f, 0x05, 0x07, 0xfe, 0x09, 0x04, 0x08, 0xf9, 0x08, 0xf7, 0x0a,
  0xff, 0xf5, 0xf6, 0xff, 0x09, 0x0f, 0xf8, 0xff, 0x0a, 0x19, 0xf3, 0x12,
  0xfa, 0x07, 0x0b, 0x13, 0x02, 0xf9, 0xb3, 0x04, 0x05, 0x01, 0x0f, 0x01,
  0xf5, 0x03, 0x00, 0xfa, 0xfd, 0x02, 0x02, 0xf8, 0xfc, 0x09, 0x07, 0x09,
  0xfa, 0xfe, 0xf5, 0x07, 0x00, 0xee, 0xf6, 0x00, 0x06, 0x0f, 0xfa, 0x14,
  0x09, 0x16, 0xf3, 0x0f, 0xf5, 0x06, 0x09, 0x12, 0x00, 0xf7, 0xad, 0x07,
  0x02, 0xf4, 0x0e, 0x03, 0xf7, 0x02, 0xff, 0xfa, 0x00, 0x0d, 0xfd, 0xf8,
  0xfe, 0x0a, 0x08, 0x05, 0xfc, 0x04, 0xf5, 0xf7, 0x00, 0xf3, 0xf7, 0x01,
  0x00, 0x0b, 0xfb, 0x0e, 0x0c, 0x19, 0xf4, 0x10, 0xfa, 0x0c, 0x06, 0x1c,
  0x03, 0xf9, 0xa4, 0x08, 0x01, 0x0b, 0x08, 0x01, 0xf8, 0x02, 0x00, 0xf6,
  0xfe, 0x08, 0x10, 0xfc, 0xff, 0x08, 0x0b, 0x09, 0xfc, 0x0d, 0xf3, 0x0b,
  0x02, 0xf7, 0xf6, 0xfc, 0x01, 0x0b, 0x02, 0x0c, 0x07, 0x19, 0xf0, 0x05,
  0x00, 0x01, 0xfe, 0x19, 0x01, 0xfc, 0x9d, 0x08, 0xfd, 0xfa, 0x0d, 0x09,
  0xf4, 0x07, 0x01, 0xf7, 0xf6, 0x0b, 0xfe, 0x02, 0xfc, 0x09, 0x0b, 0x0a,
  0xfa, 0x00, 0xf5, 0xfd, 0x07, 0xee, 0xfb, 0xff, 0xfe, 0x11, 0xfe, 0x15,
  0x09, 0x1a, 0xf0, 0x09, 0xfa, 0x0b, 0x08, 0x29, 0x06, 0xf1, 0xae, 0xee,
  0x0d, 0xfb, 0x15, 0x03, 0xf8, 0x00, 0x01, 0xff, 0x01, 0xdf, 0x0a, 0xf5,
  0xfa, 0x07, 0x09, 0xf8, 0xfe, 0x0d, 0xe6, 0xf4, 0x03, 0xef, 0xff, 0xfc,
  0xe6, 0xfa, 0x01, 0xf5, 0x03, 0x18, 0xf4, 0xe9, 0x13, 0xfc, 0xff, 0x0f,
  0x11, 0xfb, 0xe1, 0xfb, 0x09, 0x04, 0xfb, 0x01, 0xf7, 0xf3, 0x03, 0xf5,
  0xfa, 0xfd, 0xf9, 0xfc, 0xe5, 0xf4, 0x11, 0xf4, 0xfc, 0x03, 0xfe, 0xdd,
  0xf6, 0xe4, 0x0f, 0xf0, 0x3b, 0x0f, 0xdf, 0xde, 0x18, 0x1a, 0x15, 0xf4,
  0x02, 0x01, 0x0e, 0x07, 0x0a, 0xf6, 0xe8, 0xf8, 0x02, 0xee, 0x14, 0x10,
  0xfd, 0xf4, 0x07, 0xef, 0xf3, 0xf8, 0x10, 0x07, 0xea, 0xf7, 0x0e, 0xee,
  0xe8, 0x04, 0x0e, 0xec, 0xf1, 0xeb, 0x13, 0xdb, 0x12, 0x0f, 0xe3, 0xce,
  0x0d, 0x15, 0x0c, 0xde, 0x07, 0xff, 0x0c, 0x0c, 0x0d, 0xf6, 0xdb, 0xf5,
  0x07, 0xfb, 0x17, 0x0e, 0xfc, 0xf7, 0x07, 0xef, 0xfa, 0x0b, 0x0b, 0xff,
  0xec, 0xf9, 0x10, 0xef, 0xe8, 0xfd, 0x0f, 0x04, 0xf6, 0xec, 0x11, 0xd7,
  0x07, 0x09, 0xea, 0xc1, 0x0f, 0x18, 0x09, 0xcd, 0x06, 0x00, 0x13, 0x1c,
  0x0c, 0xf5, 0xdb, 0xf6, 0x07, 0xfe, 0x14, 0x0d, 0xfe, 0xf8, 0x05, 0xf1,
  0xf9, 0x09, 0x08, 0x0c, 0xed, 0xf7, 0x0f, 0xe8, 0xe5, 0x17, 0x11, 0xfd,
  0xf4, 0xee, 0x10, 0xd3, 0xff, 0xfc, 0xe5, 0xd6, 0x0c, 0x1a, 0x09, 0xd0,
  0x07, 0x01, 0x0a, 0x19, 0x0e, 0xf7, 0xda, 0xfa, 0x02, 0x09, 0x13, 0x0b,
  0xfd, 0xf7, 0x03, 0xef, 0xf8, 0x0a, 0x10, 0x12, 0xeb, 0xf9, 0x12, 0xf0,
  0xe2, 0x25, 0x00, 0x01, 0xf6, 0xf1, 0x10, 0xd1, 0x00, 0x06, 0xe9, 0xc7,
  0x0d, 0x1b, 0x06, 0xbe, 0x16, 0xfe, 0x10, 0x05, 0x0b, 0xf6, 0xd5, 0xfa,
  0xff, 0xfc, 0x14, 0x08, 0xfd, 0xfe, 0x05, 0xef, 0xec, 0x05, 0x0c, 0xfe,
  0xe6, 0xf9, 0x15, 0xee, 0xd8, 0x0b, 0x0b, 0x16, 0xf3, 0xeb, 0x14, 0xce,
  0x06, 0x0a, 0xd2, 0xc7, 0x11, 0x1d, 0x06, 0xc1, 0x16, 0xfd, 0x09, 0x10,
  0x12, 0xf0, 0xdf, 0xfb, 0x05, 0xeb, 0x19, 0x08, 0x07, 0xf9, 0x02, 0xe6,
  0xed, 0xd4, 0x13, 0xfe, 0xf9, 0xf4, 0x12, 0xfd, 0xe6, 0xe6, 0xdd, 0xf7,
  0x0a, 0xe7, 0x1b, 0xf9, 0xd3, 0xfd, 0xfc, 0xf7, 0x0d, 0x1a, 0x0b, 0x11,
  0xfe, 0x01, 0x04, 0x06, 0x08, 0xfb, 0xd3, 0x02, 0x0d, 0x10, 0x06, 0xec,
  0xf4, 0x02, 0xf9, 0xfc, 0xf8, 0x0f, 0xfd, 0x08, 0xfa, 0x0a, 0x01, 0x03,
  0xe6, 0xfd, 0x1c, 0x0a, 0xfe, 0xe8, 0xf8, 0xf1, 0xe3, 0x06, 0x1c, 0xef,
  0xdb, 0x2e, 0xff, 0xfc, 0x00, 0x06, 0x06, 0x15, 0x01, 0xfd, 0xcd, 0x09,
  0x08, 0x0b, 0x06, 0x03, 0xfd, 0x05, 0xff, 0xfe, 0xfe, 0x14, 0x05, 0x0c,
  0x00, 0x0b, 0x00, 0x07, 0xfe, 0x05, 0xf8, 0x0a, 0xf6, 0xf2, 0xf5, 0xfd,
  0xf8, 0x03, 0x0e, 0xff, 0xe5, 0x2f, 0x02, 0xff, 0xf6, 0x04, 0x0b, 0x0e,
  0x04, 0xfa, 0xc0, 0x06, 0x08, 0x1c, 0x08, 0x05, 0xf7, 0x04, 0xfd, 0xfb,
  0x00, 0x07, 0x00, 0xfb, 0xff, 0x07, 0x03, 0x0c, 0xfc, 0xf3, 0xfb, 0x0b,
  0xf8, 0xed, 0xf6, 0xfc, 0xfc, 0xfc, 0x01, 0x2f, 0xe2, 0x2b, 0xff, 0xfe,
  0xf4, 0x04, 0x07, 0x14, 0x03, 0xf8, 0xbc, 0x06, 0x0d, 0x01, 0x08, 0x00,
  0xfa, 0x03, 0xff, 0xfc, 0x01, 0x10, 0xff, 0xfc, 0xff, 0x0a, 0x05, 0x09,
  0x01, 0xfd, 0xf8, 0x0d, 0xf9, 0xea, 0xf7, 0xfc, 0xf3, 0xf8, 0x02, 0x22,
  0xe3, 0x2d, 0xff, 0xfd, 0xf9, 0x06, 0xff, 0x1a, 0x05, 0xfc, 0xb7, 0x07,
  0x08, 0x06, 0x07, 0xfe, 0xfa, 0x01, 0xff, 0xfe, 0xfe, 0x0c, 0x10, 0x08,
  0x01, 0x08, 0x07, 0x0c, 0x05, 0xef, 0xf7, 0x12, 0xfb, 0xf1, 0xf5, 0xf6,
  0xf8, 0xf9, 0x00, 0x24, 0xe3, 0x2d, 0xfa, 0xf2, 0x03, 0x02, 0xff, 0x19,
  0x05, 0xf9, 0xb1, 0x06, 0x08, 0x06, 0xfd, 0x03, 0xf5, 0x06, 0xfe, 0xf6,
  0x03, 0x0b, 0x00, 0x0e, 0xfe, 0x07, 0x07, 0x0e, 0x09, 0xe4, 0xfc, 0x2f,
  0xfe, 0xeb, 0xfa, 0xf6, 0xf0, 0xf1, 0x1c, 0x38, 0xe2, 0x2d, 0xfc, 0xf7,
  0xef, 0xff, 0x03, 0x1d, 0x04, 0xf4, 0xb9, 0xf8, 0x0b, 0x06, 0x07, 0x02,
  0xfc, 0x02, 0xff, 0x05, 0x11, 0xc0, 0x08, 0xfe, 0x01, 0x05, 0x03, 0xd8,
  0x00, 0xf1, 0xe8, 0xfd, 0xfd, 0xea, 0xfc, 0xf4, 0xda, 0xee, 0xfc, 0xf7,
  0xe1, 0x31, 0xff, 0x09, 0xf5, 0x0c, 0x01, 0x01, 0x10, 0x06, 0xd9, 0x0b,
  0x07, 0xfb, 0x06, 0xf7, 0xfc, 0xfc, 0x00, 0xeb, 0xf1, 0x01, 0x02, 0xfb,
  0xfc, 0xfc, 0x0f, 0xfa, 0x09, 0x04, 0x09, 0xe8, 0xf7, 0xf2, 0x06, 0xf8,
  0xf7, 0x04, 0x28, 0xde, 0x0f, 0xd6, 0x06, 0xf4, 0xff, 0x09, 0x0d, 0x00,
  0x0c, 0x03, 0xcd, 0x0d, 0x02, 0x12, 0x0f, 0x0a, 0x00, 0xfc, 0x00, 0xee,
  0xf1, 0xfc, 0x03, 0xff, 0xfa, 0x00, 0x0c, 0xf7, 0xf7, 0x07, 0x02, 0x0d,
  0xfc, 0xf5, 0x05, 0xef, 0xe8, 0xef, 0x00, 0x1d, 0x02, 0xdb, 0x03, 0xe9,
  0xfa, 0x0a, 0x02, 0x10, 0x0e, 0x03, 0xbf, 0x0b, 0x07, 0xfa, 0x0c, 0xf9,
  0xfe, 0xfd, 0x01, 0xf4, 0xf6, 0x01, 0x01, 0x01, 0xfc, 0xfe, 0x0b, 0xf4,
  0xfe, 0xf6, 0x04, 0x0d, 0xfb, 0xf0, 0x05, 0xf2, 0xe5, 0xf5, 0xee, 0x06,
  0x09, 0xdb, 0x04, 0xe8, 0x03, 0x09, 0x07, 0x0f, 0x0e, 0x05, 0xb8, 0x0d,
  0x05, 0x04, 0x0f, 0x08, 0xfd, 0xff, 0xfe, 0xf3, 0xf3, 0x0c, 0x00, 0x07,
  0xfc, 0x01, 0x0c, 0xf5, 0xf8, 0xf8, 0x10, 0x05, 0xfd, 0xfb, 0x02, 0xef,
  0xee, 0xf4, 0x04, 0x24, 0x06, 0xdc, 0x08, 0xe6, 0xfc, 0x0c, 0x09, 0x0f,
  0x0e, 0x01, 0xb0, 0x0f, 0x02, 0x0e, 0x00, 0x01, 0xfc, 0xfd, 0xfd, 0xf4,
  0xf8, 0x0a, 0x05, 0x0e, 0xfe, 0x06, 0x0c, 0xf6, 0xfc, 0x05, 0xff, 0x0a,
  0xfe, 0xfe, 0x06, 0xea, 0xe7, 0xf9, 0x08, 0x22, 0x07, 0xdb, 0x0a, 0xef,
  0xf9, 0x09, 0xfd, 0xff, 0x11, 0x02, 0xa8, 0x0b, 0x09, 0x09, 0x11, 0x0d,
  0xfc, 0x02, 0xfd, 0xfd, 0xf4, 0xfa, 0x01, 0xfa, 0xff, 0x05, 0x0c, 0xf5,
  0x02, 0xf4, 0x05, 0x02, 0xfb, 0xfc, 0x06, 0xea, 0xe7, 0xea, 0x00, 0x19,
  0x0e, 0xdd, 0x09, 0xdd, 0xf9, 0x06, 0x0c, 0x29, 0x08, 0x01, 0xb6, 0x02,
  0x14, 0xdc, 0x0e, 0x07, 0xfd, 0xf8, 0xf8, 0xf6, 0x09, 0xd2, 0xef, 0xf9,
  0xf7, 0x03, 0x0b, 0xf9, 0x0e, 0xd0, 0x29, 0xf5, 0x10, 0xf6, 0x07, 0xe6,
  0x19, 0xf6, 0x1a, 0x17, 0x0b, 0xdc, 0x09, 0xf6, 0x7a, 0xfa, 0xff, 0xff,
  0x04, 0x00, 0x00, 0x00, 0x20, 0x00, 0x00, 0x00, 0x86, 0x00, 0x00, 0x00,
  0x08, 0x00, 0x00, 0x00, 0xc2, 0xff, 0xff, 0xff, 0xfc, 0xff, 0xff, 0xff,
  0xa3, 0xff, 0xff, 0xff, 0xdd, 0xff, 0xff, 0xff, 0x2a, 0x00, 0x00, 0x00,
  0xc4, 0xff, 0xff, 0xff, 0xa6, 0xfa, 0xff, 0xff, 0x04, 0x00, 0x00, 0x00,
  0x40, 0x02, 0x00, 0x00, 0x0a, 0xf7, 0x12, 0x10, 0x13, 0xcb, 0xef, 0x0c,
  0xf5, 0xe5, 0x16, 0xca, 0xf2, 0xd1, 0xf5, 0xdf, 0xf1, 0x08, 0x02, 0x32,
  0x43, 0xdc, 0x18, 0xd4, 0x11, 0x00, 0x0e, 0x1a, 0x0f, 0xcd, 0x0b, 0x21,
  0xfe, 0xe5, 0xe0, 0x10, 0x01, 0x81, 0xe8, 0xad, 0xfc, 0xe9, 0x18, 0xbf,
  0x07, 0x00, 0xe7, 0xcf, 0x04, 0x36, 0x1b, 0xfd, 0x0e, 0x03, 0xf7, 0x0f,
  0x06, 0x45, 0x24, 0xfd, 0x00, 0xd2, 0x00, 0xf0, 0xc4, 0x21, 0x21, 0xdc,
  0x10, 0xc5, 0xc5, 0xad, 0xd9, 0xd5, 0xbf, 0xb2, 0x85, 0xa5, 0xe9, 0x86,
  0x21, 0xfd, 0x33, 0xb1, 0xfa, 0x1c, 0x1b, 0xdc, 0x08, 0x13, 0x02, 0x35,
  0x08, 0xf1, 0xe4, 0xfb, 0xe4, 0xfb, 0xc5, 0x1c, 0x81, 0xfc, 0x88, 0xe1,
  0x26, 0x1c, 0x25, 0xa3, 0xeb, 0x17, 0x1f, 0xdd, 0x0e, 0xee, 0xee, 0x29,
  0xfc, 0xff, 0xf0, 0xde, 0xf5, 0x09, 0xb9, 0x52, 0x0e, 0xf4, 0xaf, 0xfa,
  0x29, 0x24, 0x33, 0xbf, 0x0f, 0x0e, 0x10, 0xf4, 0x10, 0xef, 0xf5, 0xff,
  0x1e, 0xf2, 0xf1, 0xfa, 0x07, 0x1f, 0x0d, 0x3f, 0xd8, 0x08, 0x01, 0xc5,
  0xce, 0x18, 0xd7, 0x64, 0xc9, 0xeb, 0xd4, 0xd4, 0xd4, 0x83, 0xd6, 0x40,
  0x16, 0xc6, 0xdc, 0xf8, 0x01, 0x33, 0x03, 0xf5, 0xf7, 0xe7, 0xe2, 0xd4,
  0xe7, 0x47, 0xe6, 0xe7, 0xc6, 0x0f, 0xe1, 0xbb, 0xb9, 0x29, 0xf4, 0xee,
  0xc4, 0xeb, 0xdc, 0x81, 0x0a, 0x13, 0xfb, 0x08, 0xe8, 0x09, 0xec, 0xea,
  0xeb, 0x19, 0xd0, 0x0b, 0xde, 0x10, 0xf3, 0xea, 0xd9, 0xfc, 0xf5, 0xfc,
  0xe3, 0x06, 0x09, 0x04, 0x81, 0xd2, 0xf3, 0x15, 0x3d, 0x08, 0xe9, 0x17,
  0xed, 0xe9, 0x0a, 0x33, 0x3f, 0xf5, 0xc6, 0xeb, 0x17, 0xbc, 0x09, 0x56,
  0x3d, 0xbd, 0xeb, 0x02, 0xe2, 0xf2, 0xe5, 0xe5, 0xec, 0x1b, 0x03, 0xe8,
  0xfb, 0xf8, 0xf0, 0x05, 0xfa, 0xfa, 0xdb, 0xb4, 0xe2, 0x09, 0xce, 0x15,
  0x04, 0xf8, 0xe7, 0xde, 0x01, 0x1b, 0x02, 0xf4, 0xcd, 0x24, 0x1a, 0xc1,
  0xfb, 0xff, 0xfd, 0x0f, 0xa9, 0x07, 0xd0, 0xc5, 0xf4, 0x34, 0xe0, 0x01,
  0xe6, 0x0f, 0x00, 0xf0, 0xf0, 0x0e, 0xe2, 0x39, 0xf3, 0x0e, 0x22, 0xfa,
  0x41, 0x1d, 0xec, 0x1d, 0xd1, 0xd2, 0xef, 0x11, 0x16, 0xf9, 0x10, 0xfb,
  0xc2, 0x16, 0x57, 0xe2, 0xf6, 0xf3, 0xe4, 0x2b, 0xfc, 0x24, 0x05, 0x07,
  0x52, 0xea, 0xf2, 0xf9, 0xc1, 0x49, 0x3d, 0x1b, 0x26, 0x08, 0xef, 0xb6,
  0xc0, 0x7f, 0x1e, 0x27, 0x00, 0xe6, 0xd0, 0x13, 0x10, 0x03, 0xe4, 0x06,
  0x0e, 0xdd, 0xc9, 0xf3, 0xf3, 0x28, 0xfe, 0x0a, 0xeb, 0xf3, 0x0b, 0x02,
  0xf4, 0x36, 0x2f, 0x1a, 0xfb, 0x20, 0xe6, 0x07, 0x27, 0x3b, 0xf7, 0x1c,
  0x52, 0xed, 0x04, 0x54, 0xa3, 0xb8, 0xef, 0xeb, 0x0e, 0xe1, 0xcf, 0x0a,
  0xef, 0xf0, 0x05, 0xe7, 0xdf, 0x1d, 0x10, 0x0b, 0xf1, 0x15, 0xfc, 0x18,
  0xfb, 0xfa, 0xe9, 0x2c, 0x00, 0xf3, 0x00, 0x0b, 0x81, 0xd1, 0xce, 0x0a,
  0xfc, 0xe0, 0x91, 0xd1, 0xf8, 0xd6, 0xef, 0xe2, 0x10, 0x1d, 0xf6, 0xf5,
  0x2c, 0x17, 0xee, 0x17, 0xef, 0x05, 0x12, 0x03, 0x23, 0x13, 0xbe, 0x09,
  0x02, 0xe3, 0xf0, 0x16, 0xa7, 0xe0, 0x02, 0x18, 0x54, 0xe4, 0x81, 0x24,
  0xf3, 0x35, 0x1f, 0xd6, 0x7f, 0xf9, 0x9b, 0xf6, 0x10, 0x09, 0xe9, 0x19,
  0x10, 0xe0, 0xd6, 0x19, 0x00, 0x1d, 0xca, 0xf7, 0xdc, 0xd3, 0x97, 0x05,
  0x58, 0x2e, 0xe8, 0xe8, 0x04, 0xed, 0x9f, 0x07, 0x25, 0x06, 0xe5, 0x14,
  0x07, 0xfd, 0xd0, 0x07, 0xee, 0xef, 0xdf, 0xee, 0x04, 0xe1, 0xb1, 0xd4,
  0x42, 0x07, 0x0f, 0xfa, 0xee, 0xd7, 0xdd, 0xe4, 0x2d, 0x0c, 0xe9, 0x1a,
  0x29, 0xf4, 0xd0, 0x18, 0xe9, 0x01, 0xfb, 0xe5, 0xd2, 0xe6, 0x20, 0x2b,
  0x56, 0xf2, 0xe3, 0x1d, 0xff, 0xc5, 0xe9, 0xc1, 0x03, 0xf6, 0xec, 0x60,
  0xc6, 0x34, 0xcc, 0xec, 0x25, 0x99, 0x03, 0x3b, 0x81, 0xa7, 0x22, 0xe5,
  0x02, 0xf9, 0xca, 0x8c, 0xc1, 0xdc, 0xb9, 0xf1, 0x40, 0xbb, 0xf5, 0xc9,
  0xac, 0x92, 0xef, 0x11, 0x10, 0x20, 0x01, 0xf1, 0xb1, 0xfa, 0xe2, 0x06,
  0x10, 0x37, 0xf5, 0xfe, 0xb6, 0x61, 0x3e, 0x2f, 0x57, 0x7f, 0xd2, 0x69,
  0xa4, 0xe7, 0x13, 0x5d, 0xf2, 0xfc, 0xff, 0xff, 0x04, 0x00, 0x00, 0x00,
  0x20, 0x00, 0x00, 0x00, 0x14, 0x00, 0x00, 0x00, 0x47, 0x00, 0x00, 0x00,
  0x65, 0x00, 0x00, 0x00, 0xdb, 0xff, 0xff, 0xff, 0x65, 0x00, 0x00, 0x00,
  0x83, 0xfe, 0xff, 0xff, 0x95, 0xff, 0xff, 0xff, 0x01, 0x00, 0x00, 0x00,
  0x1e, 0xfd, 0xff, 0xff, 0x04, 0x00, 0x00, 0x00, 0x40, 0x02, 0x00, 0x00,
  0xf4, 0xfb, 0x19, 0x00, 0x13, 0xc9, 0x1b, 0x43, 0xdb, 0x00, 0xe9, 0xfb,
  0xeb, 0xfa, 0xe8, 0x19, 0x10, 0x1c, 0x02, 0xdd, 0xcb, 0x2f, 0xec, 0xfc,
  0x1e, 0xe9, 0xd2, 0x22, 0x11, 0x22, 0xd8, 0xec, 0xed, 0xc0, 0xe2, 0xe0,
  0xdc, 0x81, 0x02, 0x1d, 0xc2, 0x0d, 0xf8, 0xf8, 0xbf, 0x15, 0x18, 0x3c,
  0x68, 0xc0, 0xec, 0x1d, 0x28, 0x6e, 0x03, 0xe0, 0xfe, 0xdf, 0xfd, 0x0d,
  0xe2, 0xb1, 0x13, 0x05, 0xa5, 0x03, 0x03, 0x08, 0xf8, 0x0f, 0x09, 0x25,
  0xfa, 0x1c, 0x12, 0x7f, 0xc9, 0xf4, 0x09, 0x1d, 0xd7, 0xe9, 0xd4, 0x35,
  0xd3, 0xc3, 0xd9, 0xfa, 0x0e, 0xfd, 0xf3, 0x34, 0xd8, 0x0d, 0xdb, 0xf8,
  0xfb, 0x08, 0x07, 0x2e, 0xd3, 0x1d, 0x03, 0x33, 0xe6, 0x0f, 0xe7, 0x28,
  0xe1, 0xf6, 0x2b, 0xe0, 0x36, 0x13, 0x14, 0x19, 0x0d, 0x1b, 0x2d, 0xe8,
  0xef, 0xf5, 0x06, 0x20, 0xf1, 0x14, 0x0d, 0x02, 0xfb, 0xf5, 0xdb, 0x23,
  0xfd, 0xe7, 0x15, 0xec, 0x19, 0x1a, 0xcf, 0x46, 0x05, 0x0a, 0x19, 0xf4,
  0xee, 0xcd, 0xef, 0xa6, 0x28, 0x0a, 0x07, 0x22, 0xfd, 0x26, 0xb5, 0x7f,
  0x1d, 0x32, 0x1b, 0x15, 0x0e, 0x08, 0xe9, 0xf4, 0x00, 0xc7, 0xf6, 0x1e,
  0xea, 0x09, 0xf2, 0xc0, 0x01, 0xd3, 0xf7, 0x0d, 0x0b, 0x14, 0xee, 0x4e,
  0x23, 0x14, 0xf8, 0x3b, 0xe8, 0xf1, 0xec, 0xf6, 0xe5, 0xaf, 0x04, 0xfd,
  0xea, 0xea, 0xd9, 0x37, 0xed, 0xdd, 0x1b, 0x15, 0xfd, 0xfa, 0x40, 0xcd,
  0x10, 0x0b, 0xf6, 0x3a, 0xc9, 0xe4, 0xf0, 0x0f, 0x0b, 0x93, 0x17, 0x18,
  0x28, 0xde, 0xd8, 0xea, 0x1b, 0x2f, 0xc8, 0xb1, 0x0a, 0xec, 0xc6, 0x3b,
  0xe5, 0x2f, 0x98, 0x88, 0x05, 0x04, 0xb9, 0x46, 0x0f, 0x02, 0x35, 0x08,
  0xf2, 0x82, 0xd4, 0x05, 0xe9, 0x0d, 0xe6, 0x98, 0x24, 0x03, 0x82, 0x1e,
  0xdd, 0x03, 0xd4, 0xf4, 0xf5, 0xe9, 0xf2, 0x2c, 0x03, 0xd8, 0x09, 0xe5,
  0xde, 0xd4, 0x81, 0x1a, 0x05, 0x22, 0x02, 0x00, 0x08, 0x14, 0xac, 0x00,
  0x0b, 0xdf, 0xf1, 0x40, 0xf6, 0xe8, 0x03, 0x18, 0x28, 0x23, 0xf5, 0x09,
  0xe2, 0x31, 0xe5, 0x12, 0x1c, 0x34, 0x35, 0x81, 0x06, 0x30, 0x0d, 0x32,
  0x3a, 0x72, 0x39, 0x2c, 0x93, 0x1e, 0xed, 0xf7, 0x18, 0x3c, 0x27, 0x19,
  0xd9, 0x57, 0xd3, 0xff, 0x37, 0xff, 0x13, 0x01, 0xe2, 0x48, 0x96, 0xe9,
  0xfe, 0xfe, 0xdb, 0x16, 0xd3, 0x04, 0xb5, 0xf8, 0xed, 0x17, 0xde, 0xd8,
  0xcd, 0xf7, 0xd4, 0xe6, 0xea, 0xd6, 0xbd, 0x13, 0xf7, 0xcb, 0xe7, 0xf8,
  0xbf, 0xf6, 0xc0, 0xd0, 0x2b, 0x08, 0xef, 0xee, 0xe2, 0x03, 0x13, 0xc4,
  0xc8, 0xf4, 0xab, 0xf5, 0x06, 0xd3, 0x04, 0xd0, 0x1b, 0xfe, 0x01, 0x10,
  0xe0, 0x0f, 0x17, 0xcb, 0x05, 0xfa, 0x0d, 0xf8, 0x1a, 0x32, 0xd4, 0x2b,
  0x20, 0xea, 0xe9, 0xf5, 0x27, 0xda, 0xfe, 0xc6, 0x17, 0x1d, 0x17, 0x2f,
  0xee, 0x20, 0x01, 0x4e, 0x4e, 0x3b, 0x7f, 0x2d, 0x61, 0x01, 0x02, 0x0c,
  0x09, 0xd8, 0xd4, 0x21, 0xf5, 0xb6, 0xde, 0xf4, 0x17, 0x04, 0xc2, 0x18,
  0xf0, 0xed, 0xb0, 0x1b, 0x47, 0xda, 0x4c, 0x17, 0x62, 0xe3, 0xcc, 0xfe,
  0xf7, 0x1d, 0xe9, 0xcf, 0xe2, 0x04, 0xea, 0x3c, 0x43, 0xe9, 0x0f, 0x02,
  0x19, 0x17, 0xf3, 0x07, 0x06, 0xe9, 0x7f, 0xc6, 0xfc, 0xf7, 0xd3, 0xec,
  0xec, 0xfc, 0xfb, 0xe8, 0x06, 0x3b, 0x12, 0x17, 0x56, 0x07, 0xbd, 0x0c,
  0xdb, 0x1e, 0x06, 0x11, 0x00, 0xbd, 0x2c, 0xde, 0x16, 0xf5, 0xca, 0xea,
  0xfa, 0xf3, 0xee, 0xfb, 0x02, 0xed, 0xe2, 0xfe, 0x0e, 0x0b, 0x0a, 0x06,
  0xf1, 0xef, 0xed, 0xf4, 0xfd, 0xe3, 0x35, 0xe1, 0xf9, 0xf0, 0x0c, 0xe7,
  0x28, 0xeb, 0x17, 0xae, 0x21, 0x25, 0xeb, 0x0a, 0xec, 0xdd, 0x2a, 0xd8,
  0xe9, 0x6a, 0xde, 0x17, 0x1b, 0xc8, 0xd0, 0x81, 0xf7, 0x19, 0xe6, 0xc7,
  0x36, 0x36, 0x16, 0xba, 0x1c, 0x57, 0x1d, 0x0a, 0x25, 0x1d, 0x19, 0xed,
  0x02, 0x52, 0x34, 0x3e, 0x38, 0xcc, 0xf1, 0xa4, 0xe5, 0x2f, 0xf8, 0x1d,
  0x01, 0x09, 0x2f, 0xf4, 0x2a, 0x26, 0xf0, 0xe1, 0x0f, 0x1c, 0x1e, 0xf9,
  0x55, 0x27, 0xf9, 0xeb, 0xed, 0xc3, 0x05, 0xbe, 0x09, 0xee, 0xf5, 0x09,
  0x6a, 0xff, 0xff, 0xff, 0x04, 0x00, 0x00, 0x00, 0x20, 0x00, 0x00, 0x00,
  0xdd, 0xfe, 0xff, 0xff, 0x83, 0x01, 0x00, 0x00, 0x9e, 0xfe, 0xff, 0xff,
  0x48, 0xff, 0xff, 0xff, 0x19, 0xff, 0xff, 0xff, 0xdc, 0xff, 0xff, 0xff,
  0xa7, 0x01, 0x00, 0x00, 0xe4, 0xfe, 0xff, 0xff, 0x96, 0xff, 0xff, 0xff,
  0x04, 0x00, 0x00, 0x00, 0x48, 0x00, 0x00, 0x00, 0x65, 0x02, 0xc9, 0x7f,
  0xf1, 0xbd, 0xe2, 0xfc, 0x0d, 0xdf, 0xd2, 0xb8, 0xf2, 0x0e, 0xd7, 0x64,
  0xe6, 0x7f, 0x0e, 0xbf, 0x3d, 0xb9, 0x56, 0x7f, 0xc5, 0x4d, 0x10, 0x7f,
  0x98, 0x3c, 0x71, 0xa5, 0x71, 0x19, 0xe5, 0x38, 0xbf, 0xbe, 0x0e, 0x7f,
  0xea, 0xd5, 0xdd, 0xfe, 0x0f, 0xfc, 0xe9, 0x02, 0x7f, 0x6d, 0x13, 0x2f,
  0x7b, 0x34, 0xeb, 0xe4, 0xe1, 0xaa, 0xc2, 0x9d, 0x99, 0x09, 0x81, 0xf0,
  0xdb, 0x46, 0xbc, 0xd3, 0x7f, 0xdb, 0xea, 0x1e, 0xea, 0xff, 0xff, 0xff,
  0x04, 0x00, 0x00, 0x00, 0x08, 0x00, 0x00, 0x00, 0xff, 0xff, 0xff, 0xff,
  0x18, 0x01, 0x00, 0x00, 0x00, 0x00, 0x06, 0x00, 0x08, 0x00, 0x04, 0x00,
  0x06, 0x00, 0x00, 0x00, 0x04, 0x00, 0x00, 0x00, 0x10, 0x00, 0x00, 0x00,
  0x01, 0x00, 0x00, 0x00, 0x31, 0x00, 0x00, 0x00, 0x28, 0x00, 0x00, 0x00,
  0x01, 0x00, 0x00, 0x00, 0x80, 0xf1, 0xff, 0xff, 0x84, 0xf1, 0xff, 0xff,
  0x0f, 0x00, 0x00, 0x00, 0x4d, 0x4c, 0x49, 0x52, 0x20, 0x43, 0x6f, 0x6e,
  0x76, 0x65, 0x72, 0x74, 0x65, 0x64, 0x2e, 0x00, 0x01, 0x00, 0x00, 0x00,
  0x14, 0x00, 0x00, 0x00, 0x00, 0x00, 0x0e, 0x00, 0x18, 0x00, 0x14, 0x00,
  0x10, 0x00, 0x0c, 0x00, 0x08, 0x00, 0x04, 0x00, 0x0e, 0x00, 0x00, 0x00,
  0x14, 0x00, 0x00, 0x00, 0x1c, 0x00, 0x00, 0x00, 0x60, 0x02, 0x00, 0x00,
  0x64, 0x02, 0x00, 0x00, 0x68, 0x02, 0x00, 0x00, 0x04, 0x00, 0x00, 0x00,
  0x6d, 0x61, 0x69, 0x6e, 0x00, 0x00, 0x00, 0x00, 0x09, 0x00, 0x00, 0x00,
  0x24, 0x02, 0x00, 0x00, 0xc8, 0x01, 0x00, 0x00, 0x68, 0x01, 0x00, 0x00,
  0x24, 0x01, 0x00, 0x00, 0xe4, 0x00, 0x00, 0x00, 0xa0, 0x00, 0x00, 0x00,
  0x60, 0x00, 0x00, 0x00, 0x3c, 0x00, 0x00, 0x00, 0x04, 0x00, 0x00, 0x00,
  0x66, 0xfe, 0xff, 0xff, 0x14, 0x00, 0x00, 0x00, 0x00, 0x00, 0x00, 0x08,
  0x10, 0x00, 0x00, 0x00, 0x14, 0x00, 0x00, 0x00, 0x03, 0x00, 0x00, 0x00,
  0x18, 0xf2, 0xff, 0xff, 0x01, 0x00, 0x00, 0x00, 0x13, 0x00, 0x00, 0x00,
  0x03, 0x00, 0x00, 0x00, 0x12, 0x00, 0x00, 0x00, 0x09, 0x00, 0x00, 0x00,
  0x0a, 0x00, 0x00, 0x00, 0x3e, 0xfe, 0xff, 0xff, 0x08, 0x00, 0x00, 0x00,
  0x0c, 0x00, 0x00, 0x00, 0x01, 0x00, 0x00, 0x00, 0x12, 0x00, 0x00, 0x00,
  0x02, 0x00, 0x00, 0x00, 0x11, 0x00, 0x00, 0x00, 0x02, 0x00, 0x00, 0x00,
  0xba, 0xfe, 0xff, 0xff, 0x14, 0x00, 0x00, 0x00, 0x00, 0x00, 0x00, 0x05,
  0x20, 0x00, 0x00, 0x00, 0x24, 0x00, 0x00, 0x00, 0x02, 0x00, 0x00, 0x00,
  0x06, 0xff, 0xff, 0xff, 0x02, 0x00, 0x00, 0x00, 0x02, 0x00, 0x00, 0x00,
  0x02, 0x00, 0x00, 0x00, 0x02, 0x00, 0x00, 0x00, 0x01, 0x00, 0x00, 0x00,
  0x11, 0x00, 0x00, 0x00, 0x01, 0x00, 0x00, 0x00, 0x10, 0x00, 0x00, 0x00,
  0xf6, 0xfe, 0xff, 0xff, 0x14, 0x00, 0x00, 0x00, 0x00, 0x00, 0x00, 0x01,
  0x1c, 0x00, 0x00, 0x00, 0x20, 0x00, 0x00, 0x00, 0x01, 0x00, 0x00, 0x00,
  0xe8, 0xfe, 0xff, 0xff, 0x00, 0x00, 0x00, 0x01, 0x01, 0x00, 0x00, 0x00,
  0x01, 0x00, 0x00, 0x00, 0x01, 0x00, 0x00, 0x00, 0x10, 0x00, 0x00, 0x00,
  0x03, 0x00, 0x00, 0x00, 0x0f, 0x00, 0x00, 0x00, 0x07, 0x00, 0x00, 0x00,
  0x08, 0x00, 0x00, 0x00, 0x36, 0xff, 0xff, 0xff, 0x14, 0x00, 0x00, 0x00,
  0x00, 0x00, 0x00, 0x05, 0x20, 0x00, 0x00, 0x00, 0x24, 0x00, 0x00, 0x00,
  0x02, 0x00, 0x00, 0x00, 0x82, 0xff, 0xff, 0xff, 0x02, 0x00, 0x00, 0x00,
  0x02, 0x00, 0x00, 0x00, 0x02, 0x00, 0x00, 0x00, 0x02, 0x00, 0x00, 0x00,
  0x01, 0x00, 0x00, 0x00, 0x0f, 0x00, 0x00, 0x00, 0x01, 0x00, 0x00, 0x00,
  0x0e, 0x00, 0x00, 0x00, 0x72, 0xff, 0xff, 0xff, 0x14, 0x00, 0x00, 0x00,
  0x00, 0x00, 0x00, 0x01, 0x1c, 0x00, 0x00, 0x00, 0x20, 0x00, 0x00, 0x00,
  0x01, 0x00, 0x00, 0x00, 0x64, 0xff, 0xff, 0xff, 0x00, 0x00, 0x00, 0x01,
  0x01, 0x00, 0x00, 0x00, 0x01, 0x00, 0x00, 0x00, 0x01, 0x00, 0x00, 0x00,
  0x0e, 0x00, 0x00, 0x00, 0x03, 0x00, 0x00, 0x00, 0x0d, 0x00, 0x00, 0x00,
  0x05, 0x00, 0x00, 0x00, 0x06, 0x00, 0x00, 0x00, 0xb2, 0xff, 0xff, 0xff,
  0x24, 0x00, 0x00, 0x00, 0x00, 0x00, 0x00, 0x05, 0x30, 0x00, 0x00, 0x00,
  0x34, 0x00, 0x00, 0x00, 0x02, 0x00, 0x00, 0x00, 0x00, 0x00, 0x0e, 0x00,
  0x14, 0x00, 0x00, 0x00, 0x10, 0x00, 0x0c, 0x00, 0x08, 0x00, 0x04, 0x00,
  0x0e, 0x00, 0x00, 0x00, 0x02, 0x00, 0x00, 0x00, 0x02, 0x00, 0x00, 0x00,
  0x02, 0x00, 0x00, 0x00, 0x02, 0x00, 0x00, 0x00, 0x01, 0x00, 0x00, 0x00,
  0x0d, 0x00, 0x00, 0x00, 0x01, 0x00, 0x00, 0x00, 0x0c, 0x00, 0x00, 0x00,
  0x00, 0x00, 0x0e, 0x00, 0x18, 0x00, 0x14, 0x00, 0x10, 0x00, 0x0c, 0x00,
  0x0b, 0x00, 0x04, 0x00, 0x0e, 0x00, 0x00, 0x00, 0x20, 0x00, 0x00, 0x00,
  0x00, 0x00, 0x00, 0x01, 0x28, 0x00, 0x00, 0x00, 0x2c, 0x00, 0x00, 0x00,
  0x01, 0x00, 0x00, 0x00, 0x0c, 0x00, 0x10, 0x00, 0x00, 0x00, 0x0c, 0x00,
  0x08, 0x00, 0x07, 0x00, 0x0c, 0x00, 0x00, 0x00, 0x00, 0x00, 0x00, 0x01,
  0x01, 0x00, 0x00, 0x00, 0x01, 0x00, 0x00, 0x00, 0x01, 0x00, 0x00, 0x00,
  0x0c, 0x00, 0x00, 0x00, 0x03, 0x00, 0x00, 0x00, 0x0b, 0x00, 0x00, 0x00,
  0x03, 0x00, 0x00, 0x00, 0x04, 0x00, 0x00, 0x00, 0x00, 0x00, 0x0a, 0x00,
  0x0c, 0x00, 0x00, 0x00, 0x08, 0x00, 0x04, 0x00, 0x0a, 0x00, 0x00, 0x00,
  0x08, 0x00, 0x00, 0x00, 0x0c, 0x00, 0x00, 0x00, 0x01, 0x00, 0x00, 0x00,
  0x0b, 0x00, 0x00, 0x00, 0x02, 0x00, 0x00, 0x00, 0x00, 0x00, 0x00, 0x00,
  0x01, 0x00, 0x00, 0x00, 0x01, 0x00, 0x00, 0x00, 0x13, 0x00, 0x00, 0x00,
  0x01, 0x00, 0x00, 0x00, 0x00, 0x00, 0x00, 0x00, 0x14, 0x00, 0x00, 0x00,
  0x0c, 0x0c, 0x00, 0x00, 0xb0, 0x0b, 0x00, 0x00, 0x64, 0x0b, 0x00, 0x00,
  0x9c, 0x0a, 0x00, 0x00, 0xd0, 0x09, 0x00, 0x00, 0x04, 0x09, 0x00, 0x00,
  0x38, 0x08, 0x00, 0x00, 0x6c, 0x07, 0x00, 0x00, 0xa0, 0x06, 0x00, 0x00,
  0x34, 0x06, 0x00, 0x00, 0xb8, 0x05, 0x00, 0x00, 0x44, 0x05, 0x00, 0x00,
  0x40, 0x04, 0x00, 0x00, 0xc4, 0x03, 0x00, 0x00, 0xc0, 0x02, 0x00, 0x00,
  0x44, 0x02, 0x00, 0x00, 0x60, 0x01, 0x00, 0x00, 0xe4, 0x00, 0x00, 0x00,
  0x70, 0x00, 0x00, 0x00, 0x04, 0x00, 0x00, 0x00, 0x52, 0xf4, 0xff, 0xff,
  0x14, 0x00, 0x00, 0x00, 0x34, 0x00, 0x00, 0x00, 0x14, 0x00, 0x00, 0x00,
  0x00, 0x00, 0x00, 0x09, 0x48, 0x00, 0x00, 0x00, 0x44, 0xf4, 0xff, 0xff,
  0x08, 0x00, 0x00, 0x00, 0x14, 0x00, 0x00, 0x00, 0x01, 0x00, 0x00, 0x00,
  0x02, 0x00, 0x00, 0x00, 0x00, 0x00, 0x00, 0x00, 0x00, 0x00, 0x00, 0x00,
  0x01, 0x00, 0x00, 0x00, 0x67, 0x0c, 0xf4, 0x40, 0x19, 0x00, 0x00, 0x00,
  0x53, 0x74, 0x61, 0x74, 0x65, 0x66, 0x75, 0x6c, 0x50, 0x61, 0x72, 0x74,
  0x69, 0x74, 0x69, 0x6f, 0x6e, 0x65, 0x64, 0x43, 0x61, 0x6c, 0x6c, 0x3a,
  0x30, 0x00, 0x00, 0x00, 0x02, 0x00, 0x00, 0x00, 0x01, 0x00, 0x00, 0x00,
  0x19, 0x00, 0x00, 0x00, 0xba, 0xf4, 0xff, 0xff, 0x14, 0x00, 0x00, 0x00,
  0x34, 0x00, 0x00, 0x00, 0x13, 0x00, 0x00, 0x00, 0x00, 0x00, 0x00, 0x09,
  0x50, 0x00, 0x00, 0x00, 0xac, 0xf4, 0xff, 0xff, 0x08, 0x00, 0x00, 0x00,
  0x14, 0x00, 0x00, 0x00, 0x01, 0x00, 0x00, 0x00, 0x80, 0xff, 0xff, 0xff,
  0xff, 0xff, 0xff, 0xff, 0x00, 0x00, 0x00, 0x00, 0x01, 0x00, 0x00, 0x00,
  0x69, 0x4a, 0xe3, 0x3f, 0x20, 0x00, 0x00, 0x00, 0x63, 0x75, 0x73, 0x74,
  0x6f, 0x6d, 0x5f, 0x6d, 0x6f, 0x64, 0x65, 0x6c, 0x5f, 0x31, 0x2f, 0x66,
  0x6c, 0x61, 0x74, 0x74, 0x65, 0x6e, 0x5f, 0x31, 0x2f, 0x52, 0x65, 0x73,
  0x68, 0x61, 0x70, 0x65, 0x00, 0x00, 0x00, 0x00, 0x02, 0x00, 0x00, 0x00,
  0x01, 0x00, 0x00, 0x00, 0x18, 0x01, 0x00, 0x00, 0x2a, 0xf5, 0xff, 0xff,
  0x14, 0x00, 0x00, 0x00, 0x30, 0x00, 0x00, 0x00, 0x12, 0x00, 0x00, 0x00,
  0x00, 0x00, 0x00, 0x09, 0x50, 0x00, 0x00, 0x00, 0x1c, 0xf5, 0xff, 0xff,
  0x08, 0x00, 0x00, 0x00, 0x10, 0x00, 0x00, 0x00, 0x01, 0x00, 0x00, 0x00,
  0x80, 0xff, 0xff, 0xff, 0xff, 0xff, 0xff, 0xff, 0x01, 0x00, 0x00, 0x00,
  0x69, 0x4a, 0xe3, 0x3f, 0x26, 0x00, 0x00, 0x00, 0x63, 0x75, 0x73, 0x74,
  0x6f, 0x6d, 0x5f, 0x6d, 0x6f, 0x64, 0x65, 0x6c, 0x5f, 0x31, 0x2f, 0x6d,
  0x61, 0x78, 0x5f, 0x70, 0x6f, 0x6f, 0x6c, 0x69, 0x6e, 0x67, 0x32, 0x64,
  0x5f, 0x33, 0x2f, 0x4d, 0x61, 0x78, 0x50, 0x6f, 0x6f, 0x6c, 0x00, 0x00,
  0x04, 0x00, 0x00, 0x00, 0x01, 0x00, 0x00, 0x00, 0x07, 0x00, 0x00, 0x00,
  0x05, 0x00, 0x00, 0x00, 0x08, 0x00, 0x00, 0x00, 0xa2, 0xf5, 0xff, 0xff,
  0x14, 0x00, 0x00, 0x00, 0x34, 0x00, 0x00, 0x00, 0x11, 0x00, 0x00, 0x00,
  0x00, 0x00, 0x00, 0x09, 0xb8, 0x00, 0x00, 0x00, 0x94, 0xf5, 0xff, 0xff,
  0x08, 0x00, 0x00, 0x00, 0x14, 0x00, 0x00, 0x00, 0x01, 0x00, 0x00, 0x00,
  0x80, 0xff, 0xff, 0xff, 0xff, 0xff, 0xff, 0xff, 0x00, 0x00, 0x00, 0x00,
  0x01, 0x00, 0x00, 0x00, 0x69, 0x4a, 0xe3, 0x3f, 0x8a, 0x00, 0x00, 0x00,
  0x63, 0x75, 0x73, 0x74, 0x6f, 0x6d, 0x5f, 0x6d, 0x6f, 0x64, 0x65, 0x6c,
  0x5f, 0x31, 0x2f, 0x63, 0x6f, 0x6e, 0x76, 0x32, 0x64, 0x5f, 0x35, 0x2f,
  0x52, 0x65, 0x6c, 0x75, 0x3b, 0x63, 0x75, 0x73, 0x74, 0x6f, 0x6d, 0x5f,
  0x6d, 0x6f, 0x64, 0x65, 0x6c, 0x5f, 0x31, 0x2f, 0x63, 0x6f, 0x6e, 0x76,
  0x32, 0x64, 0x5f, 0x35, 0x2f, 0x42, 0x69, 0x61, 0x73, 0x41, 0x64, 0x64,
  0x3b, 0x63, 0x75, 0x73, 0x74, 0x6f, 0x6d, 0x5f, 0x6d, 0x6f, 0x64, 0x65,
  0x6c, 0x5f, 0x31, 0x2f, 0x63, 0x6f, 0x6e, 0x76, 0x32, 0x64, 0x5f, 0x35,
  0x2f, 0x43, 0x6f, 0x6e, 0x76, 0x32, 0x44, 0x3b, 0x63, 0x75, 0x73, 0x74,
  0x6f, 0x6d, 0x5f, 0x6d, 0x6f, 0x64, 0x65, 0x6c, 0x5f, 0x31, 0x2f, 0x63,
  0x6f, 0x6e, 0x76, 0x32, 0x64, 0x5f, 0x35, 0x2f, 0x42, 0x69, 0x61, 0x73,
  0x41, 0x64, 0x64, 0x2f, 0x52, 0x65, 0x61, 0x64, 0x56, 0x61, 0x72, 0x69,
  0x61, 0x62, 0x6c, 0x65, 0x4f, 0x70, 0x00, 0x00, 0x04, 0x00, 0x00, 0x00,
  0x01, 0x00, 0x00, 0x00, 0x0d, 0x00, 0x00, 0x00, 0x0a, 0x00, 0x00, 0x00,
  0x08, 0x00, 0x00, 0x00, 0x82, 0xf6, 0xff, 0xff, 0x14, 0x00, 0x00, 0x00,
  0x30, 0x00, 0x00, 0x00, 0x10, 0x00, 0x00, 0x00, 0x00, 0x00, 0x00, 0x09,
  0x50, 0x00, 0x00, 0x00, 0x74, 0xf6, 0xff, 0xff, 0x08, 0x00, 0x00, 0x00,
  0x10, 0x00, 0x00, 0x00, 0x01, 0x00, 0x00, 0x00, 0x80, 0xff, 0xff, 0xff,
  0xff, 0xff, 0xff, 0xff, 0x01, 0x00, 0x00, 0x00, 0xe8, 0x23, 0xcd, 0x3f,
  0x26, 0x00, 0x00, 0x00, 0x63, 0x75, 0x73, 0x74, 0x6f, 0x6d, 0x5f, 0x6d,
  0x6f, 0x64, 0x65, 0x6c, 0x5f, 0x31, 0x2f, 0x6d, 0x61, 0x78, 0x5f, 0x70,
  0x6f, 0x6f, 0x6c, 0x69, 0x6e, 0x67, 0x32, 0x64, 0x5f, 0x32, 0x2f, 0x4d,
  0x61, 0x78, 0x50, 0x6f, 0x6f, 0x6c, 0x00, 0x00, 0x04, 0x00, 0x00, 0x00,
  0x01, 0x00, 0x00, 0x00, 0x0d, 0x00, 0x00, 0x00, 0x0a, 0x00, 0x00, 0x00,
  0x08, 0x00, 0x00, 0x00, 0xfa, 0xf6, 0xff, 0xff, 0x14, 0x00, 0x00, 0x00,
  0x34, 0x00, 0x00, 0x00, 0x0f, 0x00, 0x00, 0x00, 0x00, 0x00, 0x00, 0x09,
  0xd8, 0x00, 0x00, 0x00, 0xec, 0xf6, 0xff, 0xff, 0x08, 0x00, 0x00, 0x00,
  0x14, 0x00, 0x00, 0x00, 0x01, 0x00, 0x00, 0x00, 0x80, 0xff, 0xff, 0xff,
  0xff, 0xff, 0xff, 0xff, 0x00, 0x00, 0x00, 0x00, 0x01, 0x00, 0x00, 0x00,
  0xe8, 0x23, 0xcd, 0x3f, 0xa9, 0x00, 0x00, 0x00, 0x63, 0x75, 0x73, 0x74,
  0x6f, 0x6d, 0x5f, 0x6d, 0x6f, 0x64, 0x65, 0x6c, 0x5f, 0x31, 0x2f, 0x63,
  0x6f, 0x6e, 0x76, 0x32, 0x64, 0x5f, 0x34, 0x2f, 0x52, 0x65, 0x6c, 0x75,
  0x3b, 0x63, 0x75, 0x73, 0x74, 0x6f, 0x6d, 0x5f, 0x6d, 0x6f, 0x64, 0x65,
  0x6c, 0x5f, 0x31, 0x2f, 0x63, 0x6f, 0x6e, 0x76, 0x32, 0x64, 0x5f, 0x34,
  0x2f, 0x42, 0x69, 0x61, 0x73, 0x41, 0x64, 0x64, 0x3b, 0x63, 0x75, 0x73,
  0x74, 0x6f, 0x6d, 0x5f, 0x6d, 0x6f, 0x64, 0x65, 0x6c, 0x5f, 0x31, 0x2f,
  0x63, 0x6f, 0x6e, 0x76, 0x32, 0x64, 0x5f, 0x35, 0x2f, 0x43, 0x6f, 0x6e,
  0x76, 0x32, 0x44, 0x3b, 0x63, 0x75, 0x73, 0x74, 0x6f, 0x6d, 0x5f, 0x6d,
  0x6f, 0x64, 0x65, 0x6c, 0x5f, 0x31, 0x2f, 0x63, 0x6f, 0x6e, 0x76, 0x32,
  0x64, 0x5f, 0x34, 0x2f, 0x43, 0x6f, 0x6e, 0x76, 0x32, 0x44, 0x3b, 0x63,
  0x75, 0x73, 0x74, 0x6f, 0x6d, 0x5f, 0x6d, 0x6f, 0x64, 0x65, 0x6c, 0x5f,
  0x31, 0x2f, 0x63, 0x6f, 0x6e, 0x76, 0x32, 0x64, 0x5f, 0x34, 0x2f, 0x42,
  0x69, 0x61, 0x73, 0x41, 0x64, 0x64, 0x2f, 0x52, 0x65, 0x61, 0x64, 0x56,
  0x61, 0x72, 0x69, 0x61, 0x62, 0x6c, 0x65, 0x4f, 0x70, 0x00, 0x00, 0x00,
  0x04, 0x00, 0x00, 0x00, 0x01, 0x00, 0x00, 0x00, 0x19, 0x00, 0x00, 0x00,
  0x14, 0x00, 0x00, 0x00, 0x08, 0x00, 0x00, 0x00, 0xfa, 0xf7, 0xff, 0xff,
  0x14, 0x00, 0x00, 0x00, 0x30, 0x00, 0x00, 0x00, 0x0e, 0x00, 0x00, 0x00,
  0x00, 0x00, 0x00, 0x09, 0x50, 0x00, 0x00, 0x00, 0xec, 0xf7, 0xff, 0xff,
  0x08, 0x00, 0x00, 0x00, 0x10, 0x00, 0x00, 0x00, 0x01, 0x00, 0x00, 0x00,
  0x80, 0xff, 0xff, 0xff, 0xff, 0xff, 0xff, 0xff, 0x01, 0x00, 0x00, 0x00,
  0xed, 0xdd, 0x7f, 0x3f, 0x26, 0x00, 0x00, 0x00, 0x63, 0x75, 0x73, 0x74,
  0x6f, 0x6d, 0x5f, 0x6d, 0x6f, 0x64, 0x65, 0x6c, 0x5f, 0x31, 0x2f, 0x6d,
  0x61, 0x78, 0x5f, 0x70, 0x6f, 0x6f, 0x6c, 0x69, 0x6e, 0x67, 0x32, 0x64,
  0x5f, 0x31, 0x2f, 0x4d, 0x61, 0x78, 0x50, 0x6f, 0x6f, 0x6c, 0x00, 0x00,
  0x04, 0x00, 0x00, 0x00, 0x01, 0x00, 0x00, 0x00, 0x19, 0x00, 0x00, 0x00,
  0x14, 0x00, 0x00, 0x00, 0x08, 0x00, 0x00, 0x00, 0x72, 0xf8, 0xff, 0xff,
  0x14, 0x00, 0x00, 0x00, 0x34, 0x00, 0x00, 0x00, 0x0d, 0x00, 0x00, 0x00,
  0x00, 0x00, 0x00, 0x09, 0xd8, 0x00, 0x00, 0x00, 0x64, 0xf8, 0xff, 0xff,
  0x08, 0x00, 0x00, 0x00, 0x14, 0x00, 0x00, 0x00, 0x01, 0x00, 0x00, 0x00,
  0x80, 0xff, 0xff, 0xff, 0xff, 0xff, 0xff, 0xff, 0x00, 0x00, 0x00, 0x00,
  0x01, 0x00, 0x00, 0x00, 0xed, 0xdd, 0x7f, 0x3f, 0xa9, 0x00, 0x00, 0x00,
  0x63, 0x75, 0x73, 0x74, 0x6f, 0x6d, 0x5f, 0x6d, 0x6f, 0x64, 0x65, 0x6c,
  0x5f, 0x31, 0x2f, 0x63, 0x6f, 0x6e, 0x76, 0x32, 0x64, 0x5f, 0x33, 0x2f,
  0x52, 0x65, 0x6c, 0x75, 0x3b, 0x63, 0x75, 0x73, 0x74, 0x6f, 0x6d, 0x5f,
  0x6d, 0x6f, 0x64, 0x65, 0x6c, 0x5f, 0x31, 0x2f, 0x63, 0x6f, 0x6e, 0x76,
  0x32, 0x64, 0x5f, 0x33, 0x2f, 0x42, 0x69, 0x61, 0x73, 0x41, 0x64, 0x64,
  0x3b, 0x63, 0x75, 0x73, 0x74, 0x6f, 0x6d, 0x5f, 0x6d, 0x6f, 0x64, 0x65,
  0x6c, 0x5f, 0x31, 0x2f, 0x63, 0x6f, 0x6e, 0x76, 0x32, 0x64, 0x5f, 0x35,
  0x2f, 0x43, 0x6f, 0x6e, 0x76, 0x32, 0x44, 0x3b, 0x63, 0x75, 0x73, 0x74,
  0x6f, 0x6d, 0x5f, 0x6d, 0x6f, 0x64, 0x65, 0x6c, 0x5f, 0x31, 0x2f, 0x63,
  0x6f, 0x6e, 0x76, 0x32, 0x64, 0x5f, 0x33, 0x2f, 0x43, 0x6f, 0x6e, 0x76,
  0x32, 0x44, 0x3b, 0x63, 0x75, 0x73, 0x74, 0x6f, 0x6d, 0x5f, 0x6d, 0x6f,
  0x64, 0x65, 0x6c, 0x5f, 0x31, 0x2f, 0x63, 0x6f, 0x6e, 0x76, 0x32, 0x64,
  0x5f, 0x33, 0x2f, 0x42, 0x69, 0x61, 0x73, 0x41, 0x64, 0x64, 0x2f, 0x52,
  0x65, 0x61, 0x64, 0x56, 0x61, 0x72, 0x69, 0x61, 0x62, 0x6c, 0x65, 0x4f,
  0x70, 0x00, 0x00, 0x00, 0x04, 0x00, 0x00, 0x00, 0x01, 0x00, 0x00, 0x00,
  0x31, 0x00, 0x00, 0x00, 0x28, 0x00, 0x00, 0x00, 0x08, 0x00, 0x00, 0x00,
  0x72, 0xf9, 0xff, 0xff, 0x14, 0x00, 0x00, 0x00, 0x34, 0x00, 0x00, 0x00,
  0x0c, 0x00, 0x00, 0x00, 0x00, 0x00, 0x00, 0x09, 0x48, 0x00, 0x00, 0x00,
  0x64, 0xf9, 0xff, 0xff, 0x08, 0x00, 0x00, 0x00, 0x14, 0x00, 0x00, 0x00,
  0x01, 0x00, 0x00, 0x00, 0x00, 0x00, 0x00, 0x00, 0x00, 0x00, 0x00, 0x00,
  0x00, 0x00, 0x00, 0x00, 0x01, 0x00, 0x00, 0x00, 0x00, 0x00, 0x80, 0x3f,
  0x1a, 0x00, 0x00, 0x00, 0x63, 0x75, 0x73, 0x74, 0x6f, 0x6d, 0x5f, 0x6d,
  0x6f, 0x64, 0x65, 0x6c, 0x5f, 0x31, 0x2f, 0x45, 0x78, 0x70, 0x61, 0x6e,
  0x64, 0x44, 0x69, 0x6d, 0x73, 0x31, 0x00, 0x00, 0x04, 0x00, 0x00, 0x00,
  0x01, 0x00, 0x00, 0x00, 0x31, 0x00, 0x00, 0x00, 0x28, 0x00, 0x00, 0x00,
  0x01, 0x00, 0x00, 0x00, 0xe2, 0xf9, 0xff, 0xff, 0x14, 0x00, 0x00, 0x00,
  0x34, 0x00, 0x00, 0x00, 0x0b, 0x00, 0x00, 0x00, 0x00, 0x00, 0x00, 0x02,
  0x5c, 0x00, 0x00, 0x00, 0xd4, 0xf9, 0xff, 0xff, 0x08, 0x00, 0x00, 0x00,
  0x14, 0x00, 0x00, 0x00, 0x01, 0x00, 0x00, 0x00, 0x00, 0x00, 0x00, 0x00,
  0x00, 0x00, 0x00, 0x00, 0x00, 0x00, 0x00, 0x00, 0x01, 0x00, 0x00, 0x00,
  0x9f, 0xed, 0xb1, 0x3c, 0x2d, 0x00, 0x00, 0x00, 0x63, 0x75, 0x73, 0x74,
  0x6f, 0x6d, 0x5f, 0x6d, 0x6f, 0x64, 0x65, 0x6c, 0x5f, 0x31, 0x2f, 0x64,
  0x65, 0x6e, 0x73, 0x65, 0x5f, 0x33, 0x2f, 0x42, 0x69, 0x61, 0x73, 0x41,
  0x64, 0x64, 0x2f, 0x52, 0x65, 0x61, 0x64, 0x56, 0x61, 0x72, 0x69, 0x61,
  0x62, 0x6c, 0x65, 0x4f, 0x70, 0x00, 0x00, 0x00, 0x01, 0x00, 0x00, 0x00,
  0x19, 0x00, 0x00, 0x00, 0x5a, 0xfa, 0xff, 0xff, 0x14, 0x00, 0x00, 0x00,
  0x30, 0x00, 0x00, 0x00, 0x0a, 0x00, 0x00, 0x00, 0x00, 0x00, 0x00, 0x09,
  0x48, 0x00, 0x00, 0x00, 0x4c, 0xfa, 0xff, 0xff, 0x08, 0x00, 0x00, 0x00,
  0x10, 0x00, 0x00, 0x00, 0x01, 0x00, 0x00, 0x00, 0x00, 0x00, 0x00, 0x00,
  0x00, 0x00, 0x00, 0x00, 0x01, 0x00, 0x00, 0x00, 0x0b, 0x67, 0x48, 0x3c,
  0x1d, 0x00, 0x00, 0x00, 0x63, 0x75, 0x73, 0x74, 0x6f, 0x6d, 0x5f, 0x6d,
  0x6f, 0x64, 0x65, 0x6c, 0x5f, 0x31, 0x2f, 0x64, 0x65, 0x6e, 0x73, 0x65,
  0x5f, 0x33, 0x2f, 0x4d, 0x61, 0x74, 0x4d, 0x75, 0x6c, 0x00, 0x00, 0x00,
  0x02, 0x00, 0x00, 0x00, 0x19, 0x00, 0x00, 0x00, 0x18, 0x01, 0x00, 0x00,
  0xc2, 0xfa, 0xff, 0xff, 0x14, 0x00, 0x00, 0x00, 0x84, 0x00, 0x00, 0x00,
  0x09, 0x00, 0x00, 0x00, 0x00, 0x00, 0x00, 0x02, 0xac, 0x00, 0x00, 0x00,
  0xb4, 0xfa, 0xff, 0xff, 0x08, 0x00, 0x00, 0x00, 0x48, 0x00, 0x00, 0x00,
  0x08, 0x00, 0x00, 0x00, 0x00, 0x00, 0x00, 0x00, 0x00, 0x00, 0x00, 0x00,
  0x00, 0x00, 0x00, 0x00, 0x00, 0x00, 0x00, 0x00, 0x00, 0x00, 0x00, 0x00,
  0x00, 0x00, 0x00, 0x00, 0x00, 0x00, 0x00, 0x00, 0x00, 0x00, 0x00, 0x00,
  0x00, 0x00, 0x00, 0x00, 0x00, 0x00, 0x00, 0x00, 0x00, 0x00, 0x00, 0x00,
  0x00, 0x00, 0x00, 0x00, 0x00, 0x00, 0x00, 0x00, 0x00, 0x00, 0x00, 0x00,
  0x00, 0x00, 0x00, 0x00, 0x00, 0x00, 0x00, 0x00, 0x08, 0x00, 0x00, 0x00,
  0x0f, 0xbc, 0x26, 0x3c, 0xcd, 0xa1, 0x14, 0x3c, 0xb5, 0xf8, 0x3e, 0x3c,
  0x85, 0x6b, 0x3c, 0x3c, 0x2b, 0xa2, 0xa6, 0x3b, 0x37, 0x73, 0x40, 0x3c,
  0x29, 0x81, 0x1f, 0x3c, 0xd0, 0x6d, 0xa8, 0x3b, 0x2e, 0x00, 0x00, 0x00,
  0x63, 0x75, 0x73, 0x74, 0x6f, 0x6d, 0x5f, 0x6d, 0x6f, 0x64, 0x65, 0x6c,
  0x5f, 0x31, 0x2f, 0x63, 0x6f, 0x6e, 0x76, 0x32, 0x64, 0x5f, 0x35, 0x2f,
  0x42, 0x69, 0x61, 0x73, 0x41, 0x64, 0x64, 0x2f, 0x52, 0x65, 0x61, 0x64,
  0x56, 0x61, 0x72, 0x69, 0x61, 0x62, 0x6c, 0x65, 0x4f, 0x70, 0x00, 0x00,
  0x01, 0x00, 0x00, 0x00, 0x08, 0x00, 0x00, 0x00, 0x8a, 0xfb, 0xff, 0xff,
  0x14, 0x00, 0x00, 0x00, 0x88, 0x00, 0x00, 0x00, 0x08, 0x00, 0x00, 0x00,
  0x00, 0x00, 0x00, 0x09, 0xa0, 0x00, 0x00, 0x00, 0x7c, 0xfb, 0xff, 0xff,
  0x08, 0x00, 0x00, 0x00, 0x4c, 0x00, 0x00, 0x00, 0x08, 0x00, 0x00, 0x00,
  0x00, 0x00, 0x00, 0x00, 0x00, 0x00, 0x00, 0x00, 0x00, 0x00, 0x00, 0x00,
  0x00, 0x00, 0x00, 0x00, 0x00, 0x00, 0x00, 0x00, 0x00, 0x00, 0x00, 0x00,
  0x00, 0x00, 0x00, 0x00, 0x00, 0x00, 0x00, 0x00, 0x00, 0x00, 0x00, 0x00,
  0x00, 0x00, 0x00, 0x00, 0x00, 0x00, 0x00, 0x00, 0x00, 0x00, 0x00, 0x00,
  0x00, 0x00, 0x00, 0x00, 0x00, 0x00, 0x00, 0x00, 0x00, 0x00, 0x00, 0x00,
  0x00, 0x00, 0x00, 0x00, 0x00, 0x00, 0x00, 0x00, 0x08, 0x00, 0x00, 0x00,
  0x93, 0x12, 0xd0, 0x3b, 0x5c, 0x7b, 0xb9, 0x3b, 0x86, 0x51, 0xee, 0x3b,
  0x64, 0x22, 0xeb, 0x3b, 0x44, 0xf2, 0x4f, 0x3b, 0xdf, 0x29, 0xf0, 0x3b,
  0xca, 0x0c, 0xc7, 0x3b, 0xde, 0x2f, 0x52, 0x3b, 0x1e, 0x00, 0x00, 0x00,
  0x63, 0x75, 0x73, 0x74, 0x6f, 0x6d, 0x5f, 0x6d, 0x6f, 0x64, 0x65, 0x6c,
  0x5f, 0x31, 0x2f, 0x63, 0x6f, 0x6e, 0x76, 0x32, 0x64, 0x5f, 0x35, 0x2f,
  0x43, 0x6f, 0x6e, 0x76, 0x32, 0x44, 0x00, 0x00, 0x04, 0x00, 0x00, 0x00,
  0x08, 0x00, 0x00, 0x00, 0x03, 0x00, 0x00, 0x00, 0x03, 0x00, 0x00, 0x00,
  0x08, 0x00, 0x00, 0x00, 0x52, 0xfc, 0xff, 0xff, 0x14, 0x00, 0x00, 0x00,
  0x84, 0x00, 0x00, 0x00, 0x07, 0x00, 0x00, 0x00, 0x00, 0x00, 0x00, 0x02,
  0xac, 0x00, 0x00, 0x00, 0x44, 0xfc, 0xff, 0xff, 0x08, 0x00, 0x00, 0x00,
  0x48, 0x00, 0x00, 0x00, 0x08, 0x00, 0x00, 0x00, 0x00, 0x00, 0x00, 0x00,
  0x00, 0x00, 0x00, 0x00, 0x00, 0x00, 0x00, 0x00, 0x00, 0x00, 0x00, 0x00,
  0x00, 0x00, 0x00, 0x00, 0x00, 0x00, 0x00, 0x00, 0x00, 0x00, 0x00, 0x00,
  0x00, 0x00, 0x00, 0x00, 0x00, 0x00, 0x00, 0x00, 0x00, 0x00, 0x00, 0x00,
  0x00, 0x00, 0x00, 0x00, 0x00, 0x00, 0x00, 0x00, 0x00, 0x00, 0x00, 0x00,
  0x00, 0x00, 0x00, 0x00, 0x00, 0x00, 0x00, 0x00, 0x00, 0x00, 0x00, 0x00,
  0x08, 0x00, 0x00, 0x00, 0xa8, 0x74, 0xb7, 0x3b, 0x4f, 0x68, 0x9b, 0x3b,
  0x36, 0x4b, 0xaf, 0x3b, 0x61, 0xaa, 0xae, 0x3b, 0x2d, 0xfd, 0x97, 0x3b,
  0x6d, 0xcb, 0x93, 0x3b, 0x70, 0x02, 0xb7, 0x3b, 0x5d, 0x98, 0x85, 0x3b,
  0x2e, 0x00, 0x00, 0x00, 0x63, 0x75, 0x73, 0x74, 0x6f, 0x6d, 0x5f, 0x6d,
  0x6f, 0x64, 0x65, 0x6c, 0x5f, 0x31, 0x2f, 0x63, 0x6f, 0x6e, 0x76, 0x32,
  0x64, 0x5f, 0x34, 0x2f, 0x42, 0x69, 0x61, 0x73, 0x41, 0x64, 0x64, 0x2f,
  0x52, 0x65, 0x61, 0x64, 0x56, 0x61, 0x72, 0x69, 0x61, 0x62, 0x6c, 0x65,
  0x4f, 0x70, 0x00, 0x00, 0x01, 0x00, 0x00, 0x00, 0x08, 0x00, 0x00, 0x00,
  0x1a, 0xfd, 0xff, 0xff, 0x14, 0x00, 0x00, 0x00, 0x88, 0x00, 0x00, 0x00,
  0x06, 0x00, 0x00, 0x00, 0x00, 0x00, 0x00, 0x09, 0xa0, 0x00, 0x00, 0x00,
  0x0c, 0xfd, 0xff, 0xff, 0x08, 0x00, 0x00, 0x00, 0x4c, 0x00, 0x00, 0x00,
  0x08, 0x00, 0x00, 0x00, 0x00, 0x00, 0x00, 0x00, 0x00, 0x00, 0x00, 0x00,
  0x00, 0x00, 0x00, 0x00, 0x00, 0x00, 0x00, 0x00, 0x00, 0x00, 0x00, 0x00,
  0x00, 0x00, 0x00, 0x00, 0x00, 0x00, 0x00, 0x00, 0x00, 0x00, 0x00, 0x00,
  0x00, 0x00, 0x00, 0x00, 0x00, 0x00, 0x00, 0x00, 0x00, 0x00, 0x00, 0x00,
  0x00, 0x00, 0x00, 0x00, 0x00, 0x00, 0x00, 0x00, 0x00, 0x00, 0x00, 0x00,
  0x00, 0x00, 0x00, 0x00, 0x00, 0x00, 0x00, 0x00, 0x00, 0x00, 0x00, 0x00,
  0x08, 0x00, 0x00, 0x00, 0x16, 0x8d, 0xb7, 0x3b, 0x01, 0x7d, 0x9b, 0x3b,
  0x8e, 0x62, 0xaf, 0x3b, 0xa4, 0xc1, 0xae, 0x3b, 0x6b, 0x11, 0x98, 0x3b,
  0x1c, 0xdf, 0x93, 0x3b, 0xcf, 0x1a, 0xb7, 0x3b, 0x28, 0xaa, 0x85, 0x3b,
  0x1e, 0x00, 0x00, 0x00, 0x63, 0x75, 0x73, 0x74, 0x6f, 0x6d, 0x5f, 0x6d,
  0x6f, 0x64, 0x65, 0x6c, 0x5f, 0x31, 0x2f, 0x63, 0x6f, 0x6e, 0x76, 0x32,
  0x64, 0x5f, 0x34, 0x2f, 0x43, 0x6f, 0x6e, 0x76, 0x32, 0x44, 0x00, 0x00,
  0x04, 0x00, 0x00, 0x00, 0x08, 0x00, 0x00, 0x00, 0x03, 0x00, 0x00, 0x00,
  0x03, 0x00, 0x00, 0x00, 0x08, 0x00, 0x00, 0x00, 0xe2, 0xfd, 0xff, 0xff,
  0x14, 0x00, 0x00, 0x00, 0x84, 0x00, 0x00, 0x00, 0x05, 0x00, 0x00, 0x00,
  0x00, 0x00, 0x00, 0x02, 0xac, 0x00, 0x00, 0x00, 0xd4, 0xfd, 0xff, 0xff,
  0x08, 0x00, 0x00, 0x00, 0x48, 0x00, 0x00, 0x00, 0x08, 0x00, 0x00, 0x00,
  0x00, 0x00, 0x00, 0x00, 0x00, 0x00, 0x00, 0x00, 0x00, 0x00, 0x00, 0x00,
  0x00, 0x00, 0x00, 0x00, 0x00, 0x00, 0x00, 0x00, 0x00, 0x00, 0x00, 0x00,
  0x00, 0x00, 0x00, 0x00, 0x00, 0x00, 0x00, 0x00, 0x00, 0x00, 0x00, 0x00,
  0x00, 0x00, 0x00, 0x00, 0x00, 0x00, 0x00, 0x00, 0x00, 0x00, 0x00, 0x00,
  0x00, 0x00, 0x00, 0x00, 0x00, 0x00, 0x00, 0x00, 0x00, 0x00, 0x00, 0x00,
  0x00, 0x00, 0x00, 0x00, 0x08, 0x00, 0x00, 0x00, 0x05, 0x49, 0xa0, 0x3b,
  0x77, 0xde, 0x5e, 0x3b, 0xca, 0xf9, 0x63, 0x3b, 0x83, 0xf0, 0x4c, 0x3b,
  0x41, 0x94, 0x46, 0x3b, 0x46, 0x8a, 0x5b, 0x3b, 0x42, 0xa8, 0x97, 0x3a,
  0x70, 0x76, 0x5e, 0x3b, 0x2e, 0x00, 0x00, 0x00, 0x63, 0x75, 0x73, 0x74,
  0x6f, 0x6d, 0x5f, 0x6d, 0x6f, 0x64, 0x65, 0x6c, 0x5f, 0x31, 0x2f, 0x63,
  0x6f, 0x6e, 0x76, 0x32, 0x64, 0x5f, 0x33, 0x2f, 0x42, 0x69, 0x61, 0x73,
  0x41, 0x64, 0x64, 0x2f, 0x52, 0x65, 0x61, 0x64, 0x56, 0x61, 0x72, 0x69,
  0x61, 0x62, 0x6c, 0x65, 0x4f, 0x70, 0x00, 0x00, 0x01, 0x00, 0x00, 0x00,
  0x08, 0x00, 0x00, 0x00, 0xaa, 0xfe, 0xff, 0xff, 0x14, 0x00, 0x00, 0x00,
  0x84, 0x00, 0x00, 0x00, 0x04, 0x00, 0x00, 0x00, 0x00, 0x00, 0x00, 0x09,
  0x9c, 0x00, 0x00, 0x00, 0x9c, 0xfe, 0xff, 0xff, 0x08, 0x00, 0x00, 0x00,
  0x48, 0x00, 0x00, 0x00, 0x08, 0x00, 0x00, 0x00, 0x00, 0x00, 0x00, 0x00,
  0x00, 0x00, 0x00, 0x00, 0x00, 0x00, 0x00, 0x00, 0x00, 0x00, 0x00, 0x00,
  0x00, 0x00, 0x00, 0x00, 0x00, 0x00, 0x00, 0x00, 0x00, 0x00, 0x00, 0x00,
  0x00, 0x00, 0x00, 0x00, 0x00, 0x00, 0x00, 0x00, 0x00, 0x00, 0x00, 0x00,
  0x00, 0x00, 0x00, 0x00, 0x00, 0x00, 0x00, 0x00, 0x00, 0x00, 0x00, 0x00,
  0x00, 0x00, 0x00, 0x00, 0x00, 0x00, 0x00, 0x00, 0x00, 0x00, 0x00, 0x00,
  0x08, 0x00, 0x00, 0x00, 0x05, 0x49, 0xa0, 0x3b, 0x77, 0xde, 0x5e, 0x3b,
  0xca, 0xf9, 0x63, 0x3b, 0x83, 0xf0, 0x4c, 0x3b, 0x41, 0x94, 0x46, 0x3b,
  0x46, 0x8a, 0x5b, 0x3b, 0x42, 0xa8, 0x97, 0x3a, 0x70, 0x76, 0x5e, 0x3b,
  0x1e, 0x00, 0x00, 0x00, 0x63, 0x75, 0x73, 0x74, 0x6f, 0x6d, 0x5f, 0x6d,
  0x6f, 0x64, 0x65, 0x6c, 0x5f, 0x31, 0x2f, 0x63, 0x6f, 0x6e, 0x76, 0x32,
  0x64, 0x5f, 0x33, 0x2f, 0x43, 0x6f, 0x6e, 0x76, 0x32, 0x44, 0x00, 0x00,
  0x04, 0x00, 0x00, 0x00, 0x08, 0x00, 0x00, 0x00, 0x03, 0x00, 0x00, 0x00,
  0x03, 0x00, 0x00, 0x00, 0x01, 0x00, 0x00, 0x00, 0x6e, 0xff, 0xff, 0xff,
  0x14, 0x00, 0x00, 0x00, 0x14, 0x00, 0x00, 0x00, 0x03, 0x00, 0x00, 0x00,
  0x00, 0x00, 0x00, 0x02, 0x2c, 0x00, 0x00, 0x00, 0xb8, 0xff, 0xff, 0xff,
  0x1e, 0x00, 0x00, 0x00, 0x63, 0x75, 0x73, 0x74, 0x6f, 0x6d, 0x5f, 0x6d,
  0x6f, 0x64, 0x65, 0x6c, 0x5f, 0x31, 0x2f, 0x66, 0x6c, 0x61, 0x74, 0x74,
  0x65, 0x6e, 0x5f, 0x31, 0x2f, 0x43, 0x6f, 0x6e, 0x73, 0x74, 0x00, 0x00,
  0x01, 0x00, 0x00, 0x00, 0x02, 0x00, 0x00, 0x00, 0xb6, 0xff, 0xff, 0xff,
  0x18, 0x00, 0x00, 0x00, 0x18, 0x00, 0x00, 0x00, 0x02, 0x00, 0x00, 0x00,
  0x00, 0x00, 0x00, 0x02, 0x2c, 0x00, 0x00, 0x00, 0x04, 0x00, 0x04, 0x00,
  0x04, 0x00, 0x00, 0x00, 0x19, 0x00, 0x00, 0x00, 0x63, 0x75, 0x73, 0x74,
  0x6f, 0x6d, 0x5f, 0x6d, 0x6f, 0x64, 0x65, 0x6c, 0x5f, 0x31, 0x2f, 0x45,
  0x78, 0x70, 0x61, 0x6e, 0x64, 0x44, 0x69, 0x6d, 0x73, 0x00, 0x00, 0x00,
  0x01, 0x00, 0x00, 0x00, 0x04, 0x00, 0x00, 0x00, 0x00, 0x00, 0x0e, 0x00,
  0x18, 0x00, 0x14, 0x00, 0x13, 0x00, 0x0c, 0x00, 0x08, 0x00, 0x04, 0x00,
  0x0e, 0x00, 0x00, 0x00, 0x20, 0x00, 0x00, 0x00, 0x3c, 0x00, 0x00, 0x00,
  0x01, 0x00, 0x00, 0x00, 0x00, 0x00, 0x00, 0x09, 0x48, 0x00, 0x00, 0x00,
  0x0c, 0x00, 0x0c, 0x00, 0x00, 0x00, 0x00, 0x00, 0x08, 0x00, 0x04, 0x00,
  0x0c, 0x00, 0x00, 0x00, 0x08, 0x00, 0x00, 0x00, 0x10, 0x00, 0x00, 0x00,
  0x01, 0x00, 0x00, 0x00, 0x00, 0x00, 0x00, 0x00, 0x00, 0x00, 0x00, 0x00,
  0x01, 0x00, 0x00, 0x00, 0x00, 0x00, 0x80, 0x3f, 0x13, 0x00, 0x00, 0x00,
  0x73, 0x65, 0x72, 0x76, 0x69, 0x6e, 0x67, 0x5f, 0x64, 0x65, 0x66, 0x61,
  0x75, 0x6c, 0x74, 0x5f, 0x78, 0x3a, 0x30, 0x00, 0x03, 0x00, 0x00, 0x00,
  0x01, 0x00, 0x00, 0x00, 0x31, 0x00, 0x00, 0x00, 0x28, 0x00, 0x00, 0x00,
  0x04, 0x00, 0x00, 0x00, 0x58, 0x00, 0x00, 0x00, 0x38, 0x00, 0x00, 0x00,
  0x18, 0x00, 0x00, 0x00, 0x04, 0x00, 0x00, 0x00, 0xe0, 0xff, 0xff, 0xff,
  0x09, 0x00, 0x00, 0x00, 0x04, 0x00, 0x00, 0x00, 0x00, 0x00, 0x00, 0x09,
  0xf0, 0xff, 0xff, 0xff, 0x11, 0x00, 0x00, 0x00, 0x02, 0x00, 0x00, 0x00,
  0x00, 0x00, 0x00, 0x11, 0x0c, 0x00, 0x10, 0x00, 0x0f, 0x00, 0x00, 0x00,
  0x08, 0x00, 0x04, 0x00, 0x0c, 0x00, 0x00, 0x00, 0x03, 0x00, 0x00, 0x00,
  0x03, 0x00, 0x00, 0x00, 0x00, 0x00, 0x00, 0x03, 0x0c, 0x00, 0x0c, 0x00,
  0x0b, 0x00, 0x00, 0x00, 0x00, 0x00, 0x04, 0x00, 0x0c, 0x00, 0x00, 0x00,
  0x16, 0x00, 0x00, 0x00, 0x00, 0x00, 0x00, 0x16
};
const int SV_model_data_len = 13088;
