alignas(8) const unsigned char SV_model_data[] = {
  0x1c, 0x00, 0x00, 0x00, 0x54, 0x46, 0x4c, 0x33, 0x14, 0x00, 0x20, 0x00,
  0x1c, 0x00, 0x18, 0x00, 0x14, 0x00, 0x10, 0x00, 0x0c, 0x00, 0x00, 0x00,
  0x08, 0x00, 0x04, 0x00, 0x14, 0x00, 0x00, 0x00, 0x1c, 0x00, 0x00, 0x00,
  0x8c, 0x00, 0x00, 0x00, 0xe4, 0x00, 0x00, 0x00, 0x98, 0x09, 0x00, 0x00,
  0xa8, 0x09, 0x00, 0x00, 0x4c, 0x17, 0x00, 0x00, 0x03, 0x00, 0x00, 0x00,
  0x01, 0x00, 0x00, 0x00, 0x10, 0x00, 0x00, 0x00, 0x00, 0x00, 0x0a, 0x00,
  0x10, 0x00, 0x0c, 0x00, 0x08, 0x00, 0x04, 0x00, 0x0a, 0x00, 0x00, 0x00,
  0x0c, 0x00, 0x00, 0x00, 0x1c, 0x00, 0x00, 0x00, 0x3c, 0x00, 0x00, 0x00,
  0x0f, 0x00, 0x00, 0x00, 0x73, 0x65, 0x72, 0x76, 0x69, 0x6e, 0x67, 0x5f,
  0x64, 0x65, 0x66, 0x61, 0x75, 0x6c, 0x74, 0x00, 0x01, 0x00, 0x00, 0x00,
  0x04, 0x00, 0x00, 0x00, 0x9c, 0xff, 0xff, 0xff, 0x13, 0x00, 0x00, 0x00,
  0x04, 0x00, 0x00, 0x00, 0x08, 0x00, 0x00, 0x00, 0x6f, 0x75, 0x74, 0x70,
  0x75, 0x74, 0x5f, 0x30, 0x00, 0x00, 0x00, 0x00, 0x01, 0x00, 0x00, 0x00,
  0x04, 0x00, 0x00, 0x00, 0x06, 0xf7, 0xff, 0xff, 0x04, 0x00, 0x00, 0x00,
  0x01, 0x00, 0x00, 0x00, 0x78, 0x00, 0x00, 0x00, 0x02, 0x00, 0x00, 0x00,
  0x34, 0x00, 0x00, 0x00, 0x04, 0x00, 0x00, 0x00, 0xdc, 0xff, 0xff, 0xff,
  0x16, 0x00, 0x00, 0x00, 0x04, 0x00, 0x00, 0x00, 0x13, 0x00, 0x00, 0x00,
  0x43, 0x4f, 0x4e, 0x56, 0x45, 0x52, 0x53, 0x49, 0x4f, 0x4e, 0x5f, 0x4d,
  0x45, 0x54, 0x41, 0x44, 0x41, 0x54, 0x41, 0x00, 0x08, 0x00, 0x0c, 0x00,
  0x08, 0x00, 0x04, 0x00, 0x08, 0x00, 0x00, 0x00, 0x15, 0x00, 0x00, 0x00,
  0x04, 0x00, 0x00, 0x00, 0x13, 0x00, 0x00, 0x00, 0x6d, 0x69, 0x6e, 0x5f,
  0x72, 0x75, 0x6e, 0x74, 0x69, 0x6d, 0x65, 0x5f, 0x76, 0x65, 0x72, 0x73,
  0x69, 0x6f, 0x6e, 0x00, 0x17, 0x00, 0x00, 0x00, 0xb0, 0x08, 0x00, 0x00,
  0xa8, 0x08, 0x00, 0x00, 0x88, 0x08, 0x00, 0x00, 0x68, 0x08, 0x00, 0x00,
  0x34, 0x08, 0x00, 0x00, 0x14, 0x08, 0x00, 0x00, 0x74, 0x07, 0x00, 0x00,
  0x54, 0x07, 0x00, 0x00, 0xb4, 0x06, 0x00, 0x00, 0x94, 0x06, 0x00, 0x00,
  0x0c, 0x01, 0x00, 0x00, 0xd4, 0x00, 0x00, 0x00, 0xcc, 0x00, 0x00, 0x00,
  0xc4, 0x00, 0x00, 0x00, 0xbc, 0x00, 0x00, 0x00, 0xb4, 0x00, 0x00, 0x00,
  0xac, 0x00, 0x00, 0x00, 0xa4, 0x00, 0x00, 0x00, 0x9c, 0x00, 0x00, 0x00,
  0x94, 0x00, 0x00, 0x00, 0x8c, 0x00, 0x00, 0x00, 0x6c, 0x00, 0x00, 0x00,
  0x04, 0x00, 0x00, 0x00, 0xd2, 0xf7, 0xff, 0xff, 0x04, 0x00, 0x00, 0x00,
  0x58, 0x00, 0x00, 0x00, 0x0c, 0x00, 0x00, 0x00, 0x08, 0x00, 0x0e, 0x00,
  0x08, 0x00, 0x04, 0x00, 0x08, 0x00, 0x00, 0x00, 0x10, 0x00, 0x00, 0x00,
  0x28, 0x00, 0x00, 0x00, 0x00, 0x00, 0x06, 0x00, 0x08, 0x00, 0x04, 0x00,
  0x06, 0x00, 0x00, 0x00, 0x04, 0x00, 0x00, 0x00, 0x01, 0x00, 0x00, 0x00,
  0xeb, 0x03, 0x00, 0x00, 0x00, 0x00, 0x0a, 0x00, 0x10, 0x00, 0x0c, 0x00,
  0x08, 0x00, 0x04, 0x00, 0x0a, 0x00, 0x00, 0x00, 0x01, 0x00, 0x00, 0x00,
  0x02, 0x00, 0x00, 0x00, 0x04, 0x00, 0x00, 0x00, 0x05, 0x00, 0x00, 0x00,
  0x32, 0x2e, 0x39, 0x2e, 0x32, 0x00, 0x00, 0x00, 0x36, 0xf8, 0xff, 0xff,
  0x04, 0x00, 0x00, 0x00, 0x10, 0x00, 0x00, 0x00, 0x31, 0x2e, 0x31, 0x34,
  0x2e, 0x30, 0x00, 0x00, 0x00, 0x00, 0x00, 0x00, 0x00, 0x00, 0x00, 0x00,
  0x14, 0xeb, 0xff, 0xff, 0x18, 0xeb, 0xff, 0xff, 0x1c, 0xeb, 0xff, 0xff,
  0x20, 0xeb, 0xff, 0xff, 0x24, 0xeb, 0xff, 0xff, 0x28, 0xeb, 0xff, 0xff,
  0x2c, 0xeb, 0xff, 0xff, 0x30, 0xeb, 0xff, 0xff, 0x34, 0xeb, 0xff, 0xff,
  0x76, 0xf8, 0xff, 0xff, 0x04, 0x00, 0x00, 0x00, 0x28, 0x00, 0x00, 0x00,
  0xfd, 0xff, 0xff, 0xff, 0x05, 0x00, 0x00, 0x00, 0xf6, 0xff, 0xff, 0xff,
  0x02, 0x00, 0x00, 0x00, 0xf4, 0xff, 0xff, 0xff, 0x05, 0x00, 0x00, 0x00,
  0x05, 0x00, 0x00, 0x00, 0x03, 0x00, 0x00, 0x00, 0xf7, 0xff, 0xff, 0xff,
  0x0a, 0x00, 0x00, 0x00, 0xaa, 0xf8, 0xff, 0xff, 0x04, 0x00, 0x00, 0x00,
  0x78, 0x05, 0x00, 0x00, 0x12, 0xf1, 0xdc, 0xe5, 0xf9, 0x11, 0x1a, 0xe3,
  0xee, 0xfa, 0x03, 0xcf, 0xdd, 0xd4, 0x05, 0xd1, 0x55, 0xfc, 0xb0, 0x81,
  0x07, 0x03, 0xdb, 0x00, 0x05, 0x0c, 0x14, 0xff, 0xfc, 0x0a, 0x0e, 0xee,
  0xf4, 0xeb, 0x1b, 0x16, 0x43, 0xe5, 0x16, 0xc5, 0x06, 0xfb, 0xd3, 0xfa,
  0x03, 0x11, 0x0f, 0xf3, 0xf4, 0xfa, 0x0c, 0xef, 0xfb, 0xd1, 0x0d, 0xf9,
  0x3a, 0xde, 0x2a, 0xe4, 0x04, 0xf8, 0xc9, 0xf8, 0xfb, 0x12, 0x0a, 0xfc,
  0xf7, 0x0b, 0x14, 0x00, 0xf1, 0xe4, 0x0b, 0x01, 0x34, 0xef, 0x13, 0xfa,
  0x0b, 0xf2, 0xbf, 0x00, 0x03, 0x0c, 0x13, 0x03, 0xef, 0x03, 0x15, 0xfc,
  0xf4, 0xde, 0x04, 0x01, 0x3b, 0xf2, 0x10, 0xf7, 0x04, 0xeb, 0xbd, 0x02,
  0x04, 0xff, 0x14, 0xf7, 0xf1, 0x0c, 0x14, 0xfc, 0xf9, 0xe0, 0x10, 0x04,
  0x2d, 0x1d, 0xff, 0x07, 0x17, 0xe7, 0xe9, 0xfe, 0xf9, 0x0f, 0x0b, 0xf6,
  0xf0, 0x08, 0x1d, 0x05, 0xf8, 0xf2, 0x13, 0x0d, 0x3e, 0x07, 0x0b, 0xf8,
  0x32, 0xfa, 0xd7, 0xf5, 0x09, 0x11, 0x0f, 0x00, 0xde, 0x01, 0x0f, 0x0d,
  0xc9, 0xf9, 0x19, 0x0e, 0xce, 0xf9, 0x18, 0x0f, 0x17, 0x0a, 0xc7, 0xfa,
  0x08, 0x04, 0x10, 0x01, 0xe8, 0x0a, 0x0e, 0xff, 0xd4, 0x01, 0xf4, 0x06,
  0xf0, 0xf4, 0xf8, 0x0f, 0x16, 0xfc, 0xba, 0x02, 0x09, 0x0a, 0x0d, 0x03,
  0xe8, 0x11, 0x02, 0x08, 0xdb, 0x02, 0x01, 0x0a, 0xe8, 0xfa, 0x00, 0xfb,
  0x17, 0x04, 0xb0, 0xfa, 0x03, 0x0e, 0x0a, 0xfb, 0xec, 0x04, 0x10, 0x09,
  0xdb, 0xf8, 0x04, 0x07, 0xf3, 0xf4, 0xff, 0x05, 0x10, 0xfc, 0xa5, 0x0b,
  0x0d, 0x01, 0x0b, 0xf6, 0xee, 0x09, 0x0e, 0x01, 0xe1, 0xfe, 0x02, 0x09,
  0xf3, 0xff, 0x0c, 0xf7, 0x1a, 0xe9, 0xab, 0x09, 0x02, 0x07, 0x08, 0xfc,
  0xe5, 0x08, 0x11, 0x08, 0xe2, 0xfb, 0x0e, 0x0c, 0xf9, 0x08, 0x08, 0xfb,
  0x18, 0xfe, 0xbe, 0x07, 0x11, 0xff, 0x0b, 0x02, 0x00, 0x11, 0x0e, 0x0a,
  0xe7, 0xf0, 0x0a, 0x10, 0xf4, 0xfa, 0x0d, 0x02, 0x13, 0xe6, 0x07, 0xe4,
  0x25, 0xf3, 0xf2, 0x1f, 0x0f, 0x0e, 0x0a, 0x14, 0x0e, 0x0c, 0xfe, 0x18,
  0xd3, 0x19, 0x1b, 0x20, 0x03, 0xe8, 0x0f, 0xd3, 0x1c, 0xe5, 0x01, 0x1b,
  0x09, 0x0f, 0xfc, 0x0a, 0x0c, 0x10, 0xef, 0xed, 0xe4, 0x26, 0xf1, 0x08,
  0x04, 0xdc, 0x0a, 0xeb, 0x20, 0xf0, 0xfd, 0x21, 0x0c, 0x0a, 0xff, 0x13,
  0x05, 0x1b, 0xe6, 0xf6, 0xe5, 0x1b, 0xe9, 0x04, 0x08, 0xe2, 0x0d, 0xe0,
  0x19, 0xe8, 0x01, 0x16, 0x07, 0x12, 0xfa, 0x02, 0x00, 0x18, 0xf4, 0xf3,
  0xeb, 0x20, 0xe6, 0xfd, 0xfe, 0xe7, 0x14, 0xde, 0x2a, 0xef, 0xf8, 0x1b,
  0x10, 0x14, 0xf4, 0x01, 0x0f, 0x11, 0xe8, 0xf3, 0xec, 0x07, 0xf4, 0xf8,
  0x07, 0xd4, 0x0b, 0xe6, 0x29, 0xde, 0x04, 0x23, 0x05, 0x04, 0x06, 0x03,
  0x03, 0x18, 0xfd, 0xfc, 0xe1, 0x07, 0xef, 0xf2, 0x02, 0xe9, 0xfc, 0xe4,
  0x2c, 0xeb, 0xef, 0x23, 0x14, 0x1c, 0xec, 0x00, 0x12, 0x01, 0xfc, 0xf7,
  0xef, 0x08, 0xfe, 0xff, 0xf2, 0x07, 0x13, 0x2b, 0xee, 0x02, 0xf0, 0x04,
  0x13, 0xf9, 0xfc, 0x12, 0x15, 0x13, 0xf1, 0x07, 0xed, 0xf1, 0x20, 0x29,
  0xf9, 0x0c, 0x11, 0x06, 0xf1, 0xfc, 0xf9, 0xf4, 0x06, 0xfb, 0xf8, 0x06,
  0x0a, 0x05, 0xfa, 0xfa, 0xf0, 0x08, 0xf9, 0x13, 0xfb, 0x0e, 0x19, 0x11,
  0xf3, 0xfb, 0xf5, 0xff, 0x08, 0xf7, 0xf8, 0x05, 0x0a, 0x04, 0x01, 0x06,
  0xf2, 0x06, 0xf5, 0x11, 0xfe, 0x0f, 0x17, 0x11, 0xf5, 0xff, 0xf7, 0xfb,
  0x08, 0xef, 0xfa, 0xfc, 0x0b, 0x0d, 0xf9, 0x01, 0xed, 0x06, 0xf7, 0x01,
  0xfa, 0x14, 0x19, 0x09, 0xf3, 0xfe, 0xf8, 0xfd, 0x0d, 0xef, 0xf4, 0x03,
  0x08, 0x03, 0x04, 0x03, 0xee, 0x01, 0x03, 0xfd, 0xf7, 0x22, 0x18, 0x10,
  0xf2, 0x06, 0xf2, 0xfb, 0x02, 0xfa, 0xf3, 0xfe, 0x0a, 0x0b, 0xf6, 0xf8,
  0xec, 0xf4, 0xf6, 0xee, 0xf8, 0x16, 0x19, 0x03, 0xea, 0x09, 0x04, 0xef,
  0x10, 0xed, 0xfb, 0xfa, 0x0a, 0xfe, 0xf2, 0xfc, 0xf5, 0xff, 0xfb, 0x0e,
  0xf2, 0x08, 0x0c, 0x01, 0x07, 0xec, 0xfa, 0xff, 0x1a, 0xf3, 0x08, 0xee,
  0x24, 0xe5, 0x09, 0xe3, 0x2b, 0x08, 0xc6, 0xb9, 0x09, 0xfe, 0x11, 0x0e,
  0xfd, 0xf0, 0x02, 0x03, 0x10, 0xf2, 0xff, 0xff, 0x0c, 0xee, 0x05, 0x0d,
  0x15, 0xf1, 0x0d, 0xe6, 0xf7, 0x08, 0x12, 0x0a, 0x06, 0xec, 0xfa, 0x01,
  0x10, 0xef, 0x03, 0xff, 0x1e, 0xe5, 0x09, 0x05, 0x0e, 0xf2, 0xf9, 0xdb,
  0x01, 0x03, 0x0d, 0x0c, 0xfe, 0xf1, 0xf9, 0x03, 0x0d, 0xf7, 0x00, 0xff,
  0x14, 0xec, 0x07, 0x0d, 0x10, 0xfe, 0xf8, 0xf9, 0xfd, 0x06, 0x0b, 0x0b,
  0x03, 0xed, 0xf2, 0x0d, 0x16, 0xf3, 0x09, 0xfc, 0x11, 0xf1, 0xfb, 0xfd,
  0x0b, 0xf2, 0xf6, 0xe1, 0x04, 0x03, 0x0a, 0x13, 0xfb, 0xf3, 0x01, 0x03,
  0x0a, 0xfd, 0xf9, 0xff, 0x14, 0xee, 0x07, 0xfb, 0x0d, 0xf9, 0xfc, 0xea,
  0xf8, 0x0d, 0x12, 0x06, 0x01, 0xee, 0xf6, 0x03, 0x0d, 0xfd, 0x09, 0xfa,
  0x17, 0x0b, 0xfe, 0xfc, 0x18, 0x06, 0xf3, 0xf6, 0xfc, 0xcd, 0xe0, 0xe9,
  0xfe, 0x21, 0x15, 0xf9, 0xe9, 0x1d, 0xee, 0xdc, 0xfd, 0x0e, 0xee, 0xf4,
  0x1f, 0x19, 0xf4, 0xe6, 0xf7, 0xe3, 0xf2, 0xe7, 0x04, 0x17, 0x16, 0xff,
  0xfe, 0x17, 0xf4, 0xf1, 0x0a, 0x07, 0xf0, 0xf8, 0x1b, 0x0f, 0x04, 0xf5,
  0xf8, 0xdc, 0xe8, 0xe4, 0x0a, 0x26, 0x0e, 0x02, 0xf9, 0x10, 0xff, 0xfb,
  0x00, 0x11, 0xf0, 0xee, 0x2d, 0x07, 0x0e, 0x03, 0xfa, 0xda, 0xec, 0xe6,
  0x07, 0x1e, 0x21, 0xfd, 0xf2, 0x25, 0xf9, 0xf2, 0x09, 0x0c, 0xf2, 0xe3,
  0x10, 0x10, 0x0a, 0x0a, 0x01, 0xcf, 0xf1, 0xe2, 0x02, 0x24, 0x17, 0xff,
  0xf0, 0x17, 0xfc, 0xfc, 0xfc, 0x0b, 0xe1, 0xf3, 0x27, 0x0d, 0x07, 0x0f,
  0x00, 0xca, 0xf5, 0xe6, 0x09, 0x19, 0x19, 0xfd, 0xf8, 0x0e, 0x06, 0x00,
  0x02, 0x07, 0xf4, 0xfd, 0x14, 0x18, 0x08, 0x17, 0x0a, 0xcb, 0xf3, 0xda,
  0x10, 0x1b, 0x1c, 0xfb, 0xf1, 0x20, 0xf8, 0x09, 0x08, 0xf1, 0xfb, 0xfb,
  0x1b, 0x19, 0x02, 0x22, 0xce, 0x18, 0x2a, 0x1d, 0x02, 0xda, 0xe8, 0xfc,
  0x1b, 0xea, 0xfb, 0xdd, 0x25, 0xe9, 0x05, 0xd6, 0x45, 0x04, 0xbe, 0xbe,
  0xf1, 0x06, 0x39, 0x0c, 0xf7, 0xf2, 0xe6, 0x00, 0x15, 0xed, 0x01, 0x05,
  0x1b, 0xf1, 0x22, 0x0c, 0x1b, 0xec, 0x0f, 0xd6, 0xe6, 0x17, 0x48, 0x0f,
  0xfb, 0xe3, 0xec, 0x02, 0x19, 0xe0, 0x04, 0xf8, 0x17, 0xe4, 0x10, 0xfa,
  0x2f, 0xed, 0x12, 0x01, 0xeb, 0x0f, 0x53, 0x06, 0xf5, 0xe3, 0xe7, 0xfe,
  0x0e, 0xf4, 0x05, 0xfe, 0x18, 0xf5, 0x14, 0xfa, 0x1e, 0xf8, 0x12, 0x09,
  0xe8, 0x18, 0x52, 0x0e, 0xf9, 0xe6, 0xe9, 0x11, 0x18, 0xec, 0x01, 0xfe,
  0x13, 0xf5, 0x14, 0xfb, 0x19, 0xf4, 0x02, 0xff, 0xe6, 0x1e, 0x51, 0x09,
  0xfa, 0xed, 0xf1, 0x0a, 0x0c, 0xf5, 0xf1, 0xfa, 0x16, 0xfd, 0x07, 0xf1,
  0x1d, 0xe6, 0x08, 0x0d, 0xdc, 0x21, 0x45, 0x11, 0xf3, 0xdf, 0xe8, 0xfd,
  0x06, 0xed, 0x01, 0xf8, 0x0c, 0xfe, 0x0e, 0xfb, 0x27, 0xed, 0xfa, 0x0e,
  0xe5, 0xfa, 0x38, 0xdd, 0x1a, 0xef, 0xf0, 0x0d, 0xfb, 0x01, 0x0f, 0xeb,
  0xf8, 0xf2, 0x28, 0x05, 0x33, 0xf6, 0xf5, 0xd9, 0xe9, 0xf2, 0x38, 0xd3,
  0x17, 0xf9, 0xfb, 0x12, 0xfb, 0x12, 0x03, 0x00, 0xfd, 0xfd, 0x1b, 0x0d,
  0x22, 0xef, 0x1b, 0xfc, 0xe2, 0xf2, 0x59, 0xcf, 0x0c, 0xf5, 0xf4, 0x0c,
  0x04, 0x12, 0x13, 0xf8, 0x04, 0x07, 0x15, 0x01, 0x1b, 0xfa, 0x19, 0xfb,
  0xe8, 0xf5, 0x6b, 0xc9, 0x0f, 0xf3, 0xf5, 0x0b, 0x01, 0x15, 0x06, 0x07,
  0xf5, 0x04, 0x0e, 0x0f, 0x23, 0x00, 0x1d, 0x02, 0xe6, 0xf5, 0x78, 0xc8,
  0x17, 0xed, 0xfb, 0x15, 0xf8, 0x16, 0x03, 0x05, 0xfd, 0x08, 0x12, 0x0a,
  0x21, 0x08, 0x11, 0x17, 0xe7, 0xee, 0x7d, 0xc7, 0x11, 0xf9, 0xef, 0x19,
  0xfc, 0x12, 0x09, 0x04, 0xf7, 0x10, 0x12, 0x0c, 0x23, 0x06, 0x06, 0x05,
  0xee, 0xf5, 0x4f, 0xc7, 0x15, 0xe5, 0xe4, 0x15, 0xfb, 0x08, 0x03, 0xf6,
  0xed, 0x07, 0x17, 0x0d, 0x16, 0xfc, 0x00, 0x09, 0x1a, 0x1e, 0xe4, 0x00,
  0x0a, 0x00, 0x1a, 0xf3, 0xe3, 0xe7, 0x22, 0xfb, 0xc5, 0xde, 0x2a, 0x0b,
  0x0c, 0xd5, 0xe8, 0xc6, 0x1c, 0x22, 0xe8, 0xfe, 0xf9, 0x09, 0x08, 0xf5,
  0xef, 0x00, 0x19, 0x06, 0xcf, 0xe5, 0x1c, 0x27, 0x0d, 0xc6, 0x13, 0xea,
  0x0d, 0x26, 0xdc, 0xff, 0xf9, 0x04, 0x08, 0xef, 0xf3, 0xfe, 0x19, 0xfd,
  0xdd, 0xe0, 0x19, 0x1d, 0x03, 0xcf, 0x1d, 0xef, 0x0e, 0x24, 0xd5, 0xfe,
  0x04, 0x02, 0x02, 0xfa, 0xe7, 0xf9, 0x13, 0x10, 0xd9, 0xdf, 0x16, 0x26,
  0x0a, 0xd7, 0x22, 0xdf, 0x0f, 0x0f, 0xcd, 0x1b, 0xef, 0xfc, 0xff, 0xef,
  0xf1, 0x03, 0x1f, 0x09, 0xe1, 0xe4, 0x1c, 0x25, 0x0e, 0xe8, 0x16, 0xed,
  0x0c, 0x14, 0xc4, 0x0f, 0x00, 0x05, 0xfd, 0xf6, 0xe6, 0x05, 0x15, 0x09,
  0xe1, 0xe8, 0x20, 0x25, 0x0b, 0xff, 0x01, 0xe1, 0x11, 0x1b, 0xeb, 0x08,
  0xe6, 0xfc, 0x00, 0xf6, 0x00, 0xfc, 0x22, 0x0b, 0xd9, 0xfb, 0x12, 0x26,
  0x14, 0xfb, 0x0f, 0xe8, 0xf1, 0x30, 0x25, 0x19, 0xf7, 0xef, 0xf3, 0xfe,
  0xf9, 0xf1, 0x14, 0x0d, 0xef, 0x0a, 0x18, 0x16, 0xf3, 0xdd, 0x18, 0x33,
  0xf4, 0x18, 0x21, 0x08, 0xf6, 0xff, 0xee, 0xf3, 0xf8, 0x01, 0x01, 0x09,
  0xed, 0x05, 0x11, 0x04, 0xf3, 0xe5, 0x12, 0x1d, 0xf8, 0x22, 0x33, 0x08,
  0xf3, 0xf7, 0xf2, 0xfe, 0xf7, 0xf3, 0x0f, 0xf9, 0xee, 0x06, 0x1e, 0x12,
  0xec, 0xfe, 0x00, 0x11, 0xf5, 0x21, 0x34, 0x0e, 0xf1, 0xee, 0xf2, 0xf0,
  0xfd, 0x00, 0xfe, 0x07, 0xf4, 0x05, 0x11, 0x0f, 0xf2, 0xe8, 0x1c, 0x03,
  0xf4, 0x2c, 0x45, 0x01, 0xf3, 0xf6, 0xf7, 0xf9, 0xf5, 0xfa, 0x04, 0x02,
  0xf2, 0x09, 0x23, 0x17, 0xf0, 0xfc, 0x0f, 0x0f, 0xef, 0x35, 0x3e, 0x00,
  0xec, 0x00, 0xe4, 0xfa, 0x04, 0xfa, 0xfe, 0x06, 0xea, 0x05, 0x08, 0x0c,
  0xf9, 0xeb, 0x11, 0xf9, 0xeb, 0x2c, 0x25, 0x0f, 0xe7, 0xfc, 0xf0, 0xf6,
  0xfb, 0xed, 0xfd, 0xfe, 0xed, 0x0c, 0x13, 0x0d, 0xee, 0xe1, 0xfd, 0x11,
  0x2e, 0xfe, 0xff, 0xff, 0x04, 0x00, 0x00, 0x00, 0x10, 0x00, 0x00, 0x00,
  0xab, 0xff, 0xff, 0xff, 0xd1, 0xff, 0xff, 0xff, 0xfa, 0xff, 0xff, 0xff,
  0xf9, 0xff, 0xff, 0xff, 0x4a, 0xfe, 0xff, 0xff, 0x04, 0x00, 0x00, 0x00,
  0x90, 0x00, 0x00, 0x00, 0x52, 0x89, 0x22, 0x15, 0xfe, 0xbc, 0x38, 0xfb,
  0xff, 0xc6, 0xf5, 0xd4, 0x7f, 0xc1, 0x1e, 0x18, 0x03, 0xb5, 0x06, 0x0c,
  0xf5, 0xc8, 0x01, 0xfa, 0x5f, 0xe9, 0xed, 0x2d, 0x31, 0x8e, 0x43, 0xe1,
  0x1f, 0x96, 0xc8, 0xd4, 0x02, 0x02, 0x64, 0x31, 0xb2, 0x1d, 0x0b, 0xfc,
  0xdf, 0x46, 0xb7, 0xcf, 0xe4, 0x18, 0x7f, 0x61, 0xdd, 0x3f, 0xff, 0xf4,
  0xd3, 0x38, 0xd8, 0xcc, 0xf2, 0x23, 0x1c, 0x23, 0xbc, 0xfc, 0x1a, 0xe1,
  0xd3, 0x5a, 0x0e, 0xd4, 0x8b, 0x29, 0x1d, 0x46, 0xdd, 0xf5, 0x81, 0x03,
  0x16, 0x1a, 0xe8, 0x15, 0xa6, 0x31, 0x0f, 0x17, 0xf9, 0x3f, 0xb1, 0x18,
  0xed, 0xf9, 0xea, 0x16, 0x9c, 0x24, 0x06, 0x3a, 0xdf, 0x2f, 0xe1, 0x1a,
  0x0a, 0xfe, 0xe7, 0xef, 0xc8, 0x47, 0xa2, 0xdb, 0xf8, 0x5e, 0x27, 0x5a,
  0xd6, 0x38, 0xfe, 0x35, 0xfb, 0xf8, 0x81, 0xd7, 0x18, 0x37, 0x10, 0x3d,
  0xce, 0x37, 0xf0, 0xef, 0x05, 0x1b, 0xfb, 0xf7, 0xe5, 0x3d, 0x27, 0x33,
  0xf7, 0x01, 0xea, 0xff, 0xe6, 0xfe, 0xff, 0xff, 0x04, 0x00, 0x00, 0x00,
  0x10, 0x00, 0x00, 0x00, 0x64, 0xff, 0xff, 0xff, 0x00, 0x00, 0x00, 0x00,
  0xc1, 0xfe, 0xff, 0xff, 0xb2, 0xff, 0xff, 0xff, 0x02, 0xff, 0xff, 0xff,
  0x04, 0x00, 0x00, 0x00, 0x90, 0x00, 0x00, 0x00, 0xca, 0x14, 0x0e, 0x0a,
  0x4f, 0x0c, 0xed, 0xd4, 0xf0, 0x19, 0xb3, 0xb4, 0xb2, 0x62, 0xde, 0xef,
  0x77, 0xb2, 0xd2, 0xe4, 0xd0, 0x7f, 0xc4, 0x23, 0x45, 0x0b, 0xca, 0xe4,
  0xe5, 0x67, 0xe4, 0xf8, 0x28, 0x26, 0xfa, 0xe6, 0xa1, 0xb7, 0x26, 0x2c,
  0x04, 0xce, 0x11, 0xe8, 0xfc, 0xce, 0x22, 0xfe, 0x0a, 0xc2, 0x0f, 0x7f,
  0x41, 0x94, 0xe3, 0x3d, 0xf2, 0x94, 0x46, 0x12, 0xe6, 0xce, 0x4a, 0x41,
  0x07, 0xa5, 0x1b, 0x00, 0xe9, 0xa3, 0x29, 0x2a, 0xed, 0xae, 0xa6, 0x99,
  0x6a, 0x26, 0x24, 0x0f, 0x3b, 0xc3, 0xb1, 0xe7, 0xf3, 0xb2, 0xff, 0x8f,
  0x50, 0xf7, 0xf3, 0x42, 0x25, 0x2f, 0x98, 0x81, 0xf7, 0xb6, 0xe0, 0xe3,
  0x66, 0x59, 0xfe, 0x5b, 0x43, 0xcc, 0xd9, 0xdb, 0x4a, 0x08, 0x4b, 0x41,
  0xe0, 0x01, 0xb6, 0xbf, 0xba, 0x1f, 0x6e, 0x0e, 0x03, 0xae, 0xfd, 0x7f,
  0xee, 0x14, 0xd7, 0xef, 0xe6, 0x05, 0x08, 0x1d, 0xe1, 0x03, 0xbb, 0x20,
  0xff, 0x0b, 0x1e, 0xff, 0x16, 0xc5, 0x39, 0x24, 0x9e, 0xff, 0xff, 0xff,
  0x04, 0x00, 0x00, 0x00, 0x10, 0x00, 0x00, 0x00, 0xbe, 0xfe, 0xff, 0xff,
  0x3a, 0xff, 0xff, 0xff, 0x6f, 0x00, 0x00, 0x00, 0xc3, 0xff, 0xff, 0xff,
  0xba, 0xff, 0xff, 0xff, 0x04, 0x00, 0x00, 0x00, 0x24, 0x00, 0x00, 0x00,
  0x33, 0xcd, 0x25, 0x2a, 0x87, 0x73, 0xed, 0xbf, 0x7f, 0xf7, 0xfc, 0x18,
  0x7f, 0x5c, 0xd5, 0x51, 0x17, 0xdd, 0xe0, 0xe8, 0x90, 0x76, 0xef, 0x7f,
  0x1c, 0xee, 0x45, 0x76, 0xb8, 0x59, 0x7f, 0xc0, 0x7d, 0x3c, 0xe6, 0x2e,
  0xea, 0xff, 0xff, 0xff, 0x04, 0x00, 0x00, 0x00, 0x08, 0x00, 0x00, 0x00,
  0xff, 0xff, 0xff, 0xff, 0x8c, 0x00, 0x00, 0x00, 0x00, 0x00, 0x06, 0x00,
  0x08, 0x00, 0x04, 0x00, 0x06, 0x00, 0x00, 0x00, 0x04, 0x00, 0x00, 0x00,
  0x10, 0x00, 0x00, 0x00, 0x01, 0x00, 0x00, 0x00, 0x31, 0x00, 0x00, 0x00,
  0x28, 0x00, 0x00, 0x00, 0x01, 0x00, 0x00, 0x00, 0xe4, 0xf2, 0xff, 0xff,
  0xe8, 0xf2, 0xff, 0xff, 0x0f, 0x00, 0x00, 0x00, 0x4d, 0x4c, 0x49, 0x52,
  0x20, 0x43, 0x6f, 0x6e, 0x76, 0x65, 0x72, 0x74, 0x65, 0x64, 0x2e, 0x00,
  0x01, 0x00, 0x00, 0x00, 0x14, 0x00, 0x00, 0x00, 0x00, 0x00, 0x0e, 0x00,
  0x18, 0x00, 0x14, 0x00, 0x10, 0x00, 0x0c, 0x00, 0x08, 0x00, 0x04, 0x00,
  0x0e, 0x00, 0x00, 0x00, 0x14, 0x00, 0x00, 0x00, 0x1c, 0x00, 0x00, 0x00,
  0x60, 0x02, 0x00, 0x00, 0x64, 0x02, 0x00, 0x00, 0x68, 0x02, 0x00, 0x00,
  0x04, 0x00, 0x00, 0x00, 0x6d, 0x61, 0x69, 0x6e, 0x00, 0x00, 0x00, 0x00,
  0x09, 0x00, 0x00, 0x00, 0x24, 0x02, 0x00, 0x00, 0xc8, 0x01, 0x00, 0x00,
  0x68, 0x01, 0x00, 0x00, 0x24, 0x01, 0x00, 0x00, 0xe4, 0x00, 0x00, 0x00,
  0xa0, 0x00, 0x00, 0x00, 0x60, 0x00, 0x00, 0x00, 0x3c, 0x00, 0x00, 0x00,
  0x04, 0x00, 0x00, 0x00, 0x66, 0xfe, 0xff, 0xff, 0x14, 0x00, 0x00, 0x00,
  0x00, 0x00, 0x00, 0x08, 0x10, 0x00, 0x00, 0x00, 0x14, 0x00, 0x00, 0x00,
  0x03, 0x00, 0x00, 0x00, 0x7c, 0xf3, 0xff, 0xff, 0x01, 0x00, 0x00, 0x00,
  0x13, 0x00, 0x00, 0x00, 0x03, 0x00, 0x00, 0x00, 0x12, 0x00, 0x00, 0x00,
  0x09, 0x00, 0x00, 0x00, 0x0a, 0x00, 0x00, 0x00, 0x3e, 0xfe, 0xff, 0xff,
  0x08, 0x00, 0x00, 0x00, 0x0c, 0x00, 0x00, 0x00, 0x01, 0x00, 0x00, 0x00,
  0x12, 0x00, 0x00, 0x00, 0x02, 0x00, 0x00, 0x00, 0x11, 0x00, 0x00, 0x00,
  0x02, 0x00, 0x00, 0x00, 0xba, 0xfe, 0xff, 0xff, 0x14, 0x00, 0x00, 0x00,
  0x00, 0x00, 0x00, 0x05, 0x20, 0x00, 0x00, 0x00, 0x24, 0x00, 0x00, 0x00,
  0x02, 0x00, 0x00, 0x00, 0x06, 0xff, 0xff, 0xff, 0x02, 0x00, 0x00, 0x00,
  0x02, 0x00, 0x00, 0x00, 0x02, 0x00, 0x00, 0x00, 0x02, 0x00, 0x00, 0x00,
  0x01, 0x00, 0x00, 0x00, 0x11, 0x00, 0x00, 0x00, 0x01, 0x00, 0x00, 0x00,
  0x10, 0x00, 0x00, 0x00, 0xf6, 0xfe, 0xff, 0xff, 0x14, 0x00, 0x00, 0x00,
  0x00, 0x00, 0x00, 0x01, 0x1c, 0x00, 0x00, 0x00, 0x20, 0x00, 0x00, 0x00,
  0x01, 0x00, 0x00, 0x00, 0xe8, 0xfe, 0xff, 0xff, 0x00, 0x00, 0x00, 0x01,
  0x01, 0x00, 0x00, 0x00, 0x01, 0x00, 0x00, 0x00, 0x01, 0x00, 0x00, 0x00,
  0x10, 0x00, 0x00, 0x00, 0x03, 0x00, 0x00, 0x00, 0x0f, 0x00, 0x00, 0x00,
  0x07, 0x00, 0x00, 0x00, 0x08, 0x00, 0x00, 0x00, 0x36, 0xff, 0xff, 0xff,
  0x14, 0x00, 0x00, 0x00, 0x00, 0x00, 0x00, 0x05, 0x20, 0x00, 0x00, 0x00,
  0x24, 0x00, 0x00, 0x00, 0x02, 0x00, 0x00, 0x00, 0x82, 0xff, 0xff, 0xff,
  0x02, 0x00, 0x00, 0x00, 0x02, 0x00, 0x00, 0x00, 0x02, 0x00, 0x00, 0x00,
  0x02, 0x00, 0x00, 0x00, 0x01, 0x00, 0x00, 0x00, 0x0f, 0x00, 0x00, 0x00,
  0x01, 0x00, 0x00, 0x00, 0x0e, 0x00, 0x00, 0x00, 0x72, 0xff, 0xff, 0xff,
  0x14, 0x00, 0x00, 0x00, 0x00, 0x00, 0x00, 0x01, 0x1c, 0x00, 0x00, 0x00,
  0x20, 0x00, 0x00, 0x00, 0x01, 0x00, 0x00, 0x00, 0x64, 0xff, 0xff, 0xff,
  0x00, 0x00, 0x00, 0x01, 0x01, 0x00, 0x00, 0x00, 0x01, 0x00, 0x00, 0x00,
  0x01, 0x00, 0x00, 0x00, 0x0e, 0x00, 0x00, 0x00, 0x03, 0x00, 0x00, 0x00,
  0x0d, 0x00, 0x00, 0x00, 0x05, 0x00, 0x00, 0x00, 0x06, 0x00, 0x00, 0x00,
  0xb2, 0xff, 0xff, 0xff, 0x24, 0x00, 0x00, 0x00, 0x00, 0x00, 0x00, 0x05,
  0x30, 0x00, 0x00, 0x00, 0x34, 0x00, 0x00, 0x00, 0x02, 0x00, 0x00, 0x00,
  0x00, 0x00, 0x0e, 0x00, 0x14, 0x00, 0x00, 0x00, 0x10, 0x00, 0x0c, 0x00,
  0x08, 0x00, 0x04, 0x00, 0x0e, 0x00, 0x00, 0x00, 0x02, 0x00, 0x00, 0x00,
  0x02, 0x00, 0x00, 0x00, 0x02, 0x00, 0x00, 0x00, 0x02, 0x00, 0x00, 0x00,
  0x01, 0x00, 0x00, 0x00, 0x0d, 0x00, 0x00, 0x00, 0x01, 0x00, 0x00, 0x00,
  0x0c, 0x00, 0x00, 0x00, 0x00, 0x00, 0x0e, 0x00, 0x18, 0x00, 0x14, 0x00,
  0x10, 0x00, 0x0c, 0x00, 0x0b, 0x00, 0x04, 0x00, 0x0e, 0x00, 0x00, 0x00,
  0x20, 0x00, 0x00, 0x00, 0x00, 0x00, 0x00, 0x01, 0x28, 0x00, 0x00, 0x00,
  0x2c, 0x00, 0x00, 0x00, 0x01, 0x00, 0x00, 0x00, 0x0c, 0x00, 0x10, 0x00,
  0x00, 0x00, 0x0c, 0x00, 0x08, 0x00, 0x07, 0x00, 0x0c, 0x00, 0x00, 0x00,
  0x00, 0x00, 0x00, 0x01, 0x01, 0x00, 0x00, 0x00, 0x01, 0x00, 0x00, 0x00,
  0x01, 0x00, 0x00, 0x00, 0x0c, 0x00, 0x00, 0x00, 0x03, 0x00, 0x00, 0x00,
  0x0b, 0x00, 0x00, 0x00, 0x03, 0x00, 0x00, 0x00, 0x04, 0x00, 0x00, 0x00,
  0x00, 0x00, 0x0a, 0x00, 0x0c, 0x00, 0x00, 0x00, 0x08, 0x00, 0x04, 0x00,
  0x0a, 0x00, 0x00, 0x00, 0x08, 0x00, 0x00, 0x00, 0x0c, 0x00, 0x00, 0x00,
  0x01, 0x00, 0x00, 0x00, 0x0b, 0x00, 0x00, 0x00, 0x02, 0x00, 0x00, 0x00,
  0x00, 0x00, 0x00, 0x00, 0x01, 0x00, 0x00, 0x00, 0x01, 0x00, 0x00, 0x00,
  0x13, 0x00, 0x00, 0x00, 0x01, 0x00, 0x00, 0x00, 0x00, 0x00, 0x00, 0x00,
  0x14, 0x00, 0x00, 0x00, 0xa4, 0x0a, 0x00, 0x00, 0x4c, 0x0a, 0x00, 0x00,
  0x04, 0x0a, 0x00, 0x00, 0x6c, 0x09, 0x00, 0x00, 0xd0, 0x08, 0x00, 0x00,
  0x34, 0x08, 0x00, 0x00, 0x98, 0x07, 0x00, 0x00, 0xfc, 0x06, 0x00, 0x00,
  0x60, 0x06, 0x00, 0x00, 0xf4, 0x05, 0x00, 0x00, 0x80, 0x05, 0x00, 0x00,
  0x0c, 0x05, 0x00, 0x00, 0x20, 0x04, 0x00, 0x00, 0xa4, 0x03, 0x00, 0x00,
  0xb0, 0x02, 0x00, 0x00, 0x34, 0x02, 0x00, 0x00, 0x58, 0x01, 0x00, 0x00,
  0xdc, 0x00, 0x00, 0x00, 0x70, 0x00, 0x00, 0x00, 0x04, 0x00, 0x00, 0x00,
  0xba, 0xf5, 0xff, 0xff, 0x14, 0x00, 0x00, 0x00, 0x34, 0x00, 0x00, 0x00,
  0x14, 0x00, 0x00, 0x00, 0x00, 0x00, 0x00, 0x09, 0x48, 0x00, 0x00, 0x00,
  0xac, 0xf5, 0xff, 0xff, 0x08, 0x00, 0x00, 0x00, 0x14, 0x00, 0x00, 0x00,
  0x01, 0x00, 0x00, 0x00, 0xf3, 0xff, 0xff, 0xff, 0xff, 0xff, 0xff, 0xff,
  0x00, 0x00, 0x00, 0x00, 0x01, 0x00, 0x00, 0x00, 0x0c, 0x04, 0x44, 0x41,
  0x19, 0x00, 0x00, 0x00, 0x53, 0x74, 0x61, 0x74, 0x65, 0x66, 0x75, 0x6c,
  0x50, 0x61, 0x72, 0x74, 0x69, 0x74, 0x69, 0x6f, 0x6e, 0x65, 0x64, 0x43,
  0x61, 0x6c, 0x6c, 0x3a, 0x30, 0x00, 0x00, 0x00, 0x02, 0x00, 0x00, 0x00,
  0x01, 0x00, 0x00, 0x00, 0x0a, 0x00, 0x00, 0x00, 0x22, 0xf6, 0xff, 0xff,
  0x14, 0x00, 0x00, 0x00, 0x30, 0x00, 0x00, 0x00, 0x13, 0x00, 0x00, 0x00,
  0x00, 0x00, 0x00, 0x09, 0x48, 0x00, 0x00, 0x00, 0x14, 0xf6, 0xff, 0xff,
  0x08, 0x00, 0x00, 0x00, 0x10, 0x00, 0x00, 0x00, 0x01, 0x00, 0x00, 0x00,
  0x80, 0xff, 0xff, 0xff, 0xff, 0xff, 0xff, 0xff, 0x01, 0x00, 0x00, 0x00,
  0x12, 0xce, 0x1a, 0x40, 0x1c, 0x00, 0x00, 0x00, 0x63, 0x75, 0x73, 0x74,
  0x6f, 0x6d, 0x5f, 0x6d, 0x6f, 0x64, 0x65, 0x6c, 0x2f, 0x66, 0x6c, 0x61,
  0x74, 0x74, 0x65, 0x6e, 0x2f, 0x52, 0x65, 0x73, 0x68, 0x61, 0x70, 0x65,
  0x00, 0x00, 0x00, 0x00, 0x02, 0x00, 0x00, 0x00, 0x01, 0x00, 0x00, 0x00,
  0x8c, 0x00, 0x00, 0x00, 0x8a, 0xf6, 0xff, 0xff, 0x14, 0x00, 0x00, 0x00,
  0x30, 0x00, 0x00, 0x00, 0x12, 0x00, 0x00, 0x00, 0x00, 0x00, 0x00, 0x09,
  0x50, 0x00, 0x00, 0x00, 0x7c, 0xf6, 0xff, 0xff, 0x08, 0x00, 0x00, 0x00,
  0x10, 0x00, 0x00, 0x00, 0x01, 0x00, 0x00, 0x00, 0x80, 0xff, 0xff, 0xff,
  0xff, 0xff, 0xff, 0xff, 0x01, 0x00, 0x00, 0x00, 0x12, 0xce, 0x1a, 0x40,
  0x24, 0x00, 0x00, 0x00, 0x63, 0x75, 0x73, 0x74, 0x6f, 0x6d, 0x5f, 0x6d,
  0x6f, 0x64, 0x65, 0x6c, 0x2f, 0x6d, 0x61, 0x78, 0x5f, 0x70, 0x6f, 0x6f,
  0x6c, 0x69, 0x6e, 0x67, 0x32, 0x64, 0x5f, 0x32, 0x2f, 0x4d, 0x61, 0x78,
  0x50, 0x6f, 0x6f, 0x6c, 0x00, 0x00, 0x00, 0x00, 0x04, 0x00, 0x00, 0x00,
  0x01, 0x00, 0x00, 0x00, 0x07, 0x00, 0x00, 0x00, 0x05, 0x00, 0x00, 0x00,
  0x04, 0x00, 0x00, 0x00, 0x02, 0xf7, 0xff, 0xff, 0x14, 0x00, 0x00, 0x00,
  0x34, 0x00, 0x00, 0x00, 0x11, 0x00, 0x00, 0x00, 0x00, 0x00, 0x00, 0x09,
  0xb0, 0x00, 0x00, 0x00, 0xf4, 0xf6, 0xff, 0xff, 0x08, 0x00, 0x00, 0x00,
  0x14, 0x00, 0x00, 0x00, 0x01, 0x00, 0x00, 0x00, 0x80, 0xff, 0xff, 0xff,
  0xff, 0xff, 0xff, 0xff, 0x00, 0x00, 0x00, 0x00, 0x01, 0x00, 0x00, 0x00,
  0x12, 0xce, 0x1a, 0x40, 0x82, 0x00, 0x00, 0x00, 0x63, 0x75, 0x73, 0x74,
  0x6f, 0x6d, 0x5f, 0x6d, 0x6f, 0x64, 0x65, 0x6c, 0x2f, 0x63, 0x6f, 0x6e,
  0x76, 0x32, 0x64, 0x5f, 0x32, 0x2f, 0x52, 0x65, 0x6c, 0x75, 0x3b, 0x63,
  0x75, 0x73, 0x74, 0x6f, 0x6d, 0x5f, 0x6d, 0x6f, 0x64, 0x65, 0x6c, 0x2f,
  0x63, 0x6f, 0x6e, 0x76, 0x32, 0x64, 0x5f, 0x32, 0x2f, 0x42, 0x69, 0x61,
  0x73, 0x41, 0x64, 0x64, 0x3b, 0x63, 0x75, 0x73, 0x74, 0x6f, 0x6d, 0x5f,
  0x6d, 0x6f, 0x64, 0x65, 0x6c, 0x2f, 0x63, 0x6f, 0x6e, 0x76, 0x32, 0x64,
  0x5f, 0x32, 0x2f, 0x43, 0x6f, 0x6e, 0x76, 0x32, 0x44, 0x3b, 0x63, 0x75,
  0x73, 0x74, 0x6f, 0x6d, 0x5f, 0x6d, 0x6f, 0x64, 0x65, 0x6c, 0x2f, 0x63,
  0x6f, 0x6e, 0x76, 0x32, 0x64, 0x5f, 0x32, 0x2f, 0x42, 0x69, 0x61, 0x73,
  0x41, 0x64, 0x64, 0x2f, 0x52, 0x65, 0x61, 0x64, 0x56, 0x61, 0x72, 0x69,
  0x61, 0x62, 0x6c, 0x65, 0x4f, 0x70, 0x00, 0x00, 0x04, 0x00, 0x00, 0x00,
  0x01, 0x00, 0x00, 0x00, 0x0d, 0x00, 0x00, 0x00, 0x0a, 0x00, 0x00, 0x00,
  0x04, 0x00, 0x00, 0x00, 0xda, 0xf7, 0xff, 0xff, 0x14, 0x00, 0x00, 0x00,
  0x30, 0x00, 0x00, 0x00, 0x10, 0x00, 0x00, 0x00, 0x00, 0x00, 0x00, 0x09,
  0x50, 0x00, 0x00, 0x00, 0xcc, 0xf7, 0xff, 0xff, 0x08, 0x00, 0x00, 0x00,
  0x10, 0x00, 0x00, 0x00, 0x01, 0x00, 0x00, 0x00, 0x80, 0xff, 0xff, 0xff,
  0xff, 0xff, 0xff, 0xff, 0x01, 0x00, 0x00, 0x00, 0xda, 0xcb, 0xe3, 0x3f,
  0x24, 0x00, 0x00, 0x00, 0x63, 0x75, 0x73, 0x74, 0x6f, 0x6d, 0x5f, 0x6d,
  0x6f, 0x64, 0x65, 0x6c, 0x2f, 0x6d, 0x61, 0x78, 0x5f, 0x70, 0x6f, 0x6f,
  0x6c, 0x69, 0x6e, 0x67, 0x32, 0x64, 0x5f, 0x31, 0x2f, 0x4d, 0x61, 0x78,
  0x50, 0x6f, 0x6f, 0x6c, 0x00, 0x00, 0x00, 0x00, 0x04, 0x00, 0x00, 0x00,
  0x01, 0x00, 0x00, 0x00, 0x0d, 0x00, 0x00, 0x00, 0x0a, 0x00, 0x00, 0x00,
  0x04, 0x00, 0x00, 0x00, 0x52, 0xf8, 0xff, 0xff, 0x14, 0x00, 0x00, 0x00,
  0x30, 0x00, 0x00, 0x00, 0x0f, 0x00, 0x00, 0x00, 0x00, 0x00, 0x00, 0x09,
  0xc8, 0x00, 0x00, 0x00, 0x44, 0xf8, 0xff, 0xff, 0x08, 0x00, 0x00, 0x00,
  0x10, 0x00, 0x00, 0x00, 0x01, 0x00, 0x00, 0x00, 0x80, 0xff, 0xff, 0xff,
  0xff, 0xff, 0xff, 0xff, 0x01, 0x00, 0x00, 0x00, 0xda, 0xcb, 0xe3, 0x3f,
  0x9f, 0x00, 0x00, 0x00, 0x63, 0x75, 0x73, 0x74, 0x6f, 0x6d, 0x5f, 0x6d,
  0x6f, 0x64, 0x65, 0x6c, 0x2f, 0x63, 0x6f, 0x6e, 0x76, 0x32, 0x64, 0x5f,
  0x31, 0x2f, 0x52, 0x65, 0x6c, 0x75, 0x3b, 0x63, 0x75, 0x73, 0x74, 0x6f,
  0x6d, 0x5f, 0x6d, 0x6f, 0x64, 0x65, 0x6c, 0x2f, 0x63, 0x6f, 0x6e, 0x76,
  0x32, 0x64, 0x5f, 0x31, 0x2f, 0x42, 0x69, 0x61, 0x73, 0x41, 0x64, 0x64,
  0x3b, 0x63, 0x75, 0x73, 0x74, 0x6f, 0x6d, 0x5f, 0x6d, 0x6f, 0x64, 0x65,
  0x6c, 0x2f, 0x63, 0x6f, 0x6e, 0x76, 0x32, 0x64, 0x5f, 0x32, 0x2f, 0x43,
  0x6f, 0x6e, 0x76, 0x32, 0x44, 0x3b, 0x63, 0x75, 0x73, 0x74, 0x6f, 0x6d,
  0x5f, 0x6d, 0x6f, 0x64, 0x65, 0x6c, 0x2f, 0x63, 0x6f, 0x6e, 0x76, 0x32,
  0x64, 0x5f, 0x31, 0x2f, 0x43, 0x6f, 0x6e, 0x76, 0x32, 0x44, 0x3b, 0x63,
  0x75, 0x73, 0x74, 0x6f, 0x6d, 0x5f, 0x6d, 0x6f, 0x64, 0x65, 0x6c, 0x2f,
  0x63, 0x6f, 0x6e, 0x76, 0x32, 0x64, 0x5f, 0x31, 0x2f, 0x42, 0x69, 0x61,
  0x73, 0x41, 0x64, 0x64, 0x2f, 0x52, 0x65, 0x61, 0x64, 0x56, 0x61, 0x72,
  0x69, 0x61, 0x62, 0x6c, 0x65, 0x4f, 0x70, 0x00, 0x04, 0x00, 0x00, 0x00,
  0x01, 0x00, 0x00, 0x00, 0x19, 0x00, 0x00, 0x00, 0x14, 0x00, 0x00, 0x00,
  0x04, 0x00, 0x00, 0x00, 0x42, 0xf9, 0xff, 0xff, 0x14, 0x00, 0x00, 0x00,
  0x34, 0x00, 0x00, 0x00, 0x0e, 0x00, 0x00, 0x00, 0x00, 0x00, 0x00, 0x09,
  0x50, 0x00, 0x00, 0x00, 0x34, 0xf9, 0xff, 0xff, 0x08, 0x00, 0x00, 0x00,
  0x14, 0x00, 0x00, 0x00, 0x01, 0x00, 0x00, 0x00, 0x80, 0xff, 0xff, 0xff,
  0xff, 0xff, 0xff, 0xff, 0x00, 0x00, 0x00, 0x00, 0x01, 0x00, 0x00, 0x00,
  0x64, 0x6b, 0x8c, 0x3f, 0x22, 0x00, 0x00, 0x00, 0x63, 0x75, 0x73, 0x74,
  0x6f, 0x6d, 0x5f, 0x6d, 0x6f, 0x64, 0x65, 0x6c, 0x2f, 0x6d, 0x61, 0x78,
  0x5f, 0x70, 0x6f, 0x6f, 0x6c, 0x69, 0x6e, 0x67, 0x32, 0x64, 0x2f, 0x4d,
  0x61, 0x78, 0x50, 0x6f, 0x6f, 0x6c, 0x00, 0x00, 0x04, 0x00, 0x00, 0x00,
  0x01, 0x00, 0x00, 0x00, 0x19, 0x00, 0x00, 0x00, 0x14, 0x00, 0x00, 0x00,
  0x04, 0x00, 0x00, 0x00, 0xba, 0xf9, 0xff, 0xff, 0x14, 0x00, 0x00, 0x00,
  0x30, 0x00, 0x00, 0x00, 0x0d, 0x00, 0x00, 0x00, 0x00, 0x00, 0x00, 0x09,
  0xc0, 0x00, 0x00, 0x00, 0xac, 0xf9, 0xff, 0xff, 0x08, 0x00, 0x00, 0x00,
  0x10, 0x00, 0x00, 0x00, 0x01, 0x00, 0x00, 0x00, 0x80, 0xff, 0xff, 0xff,
  0xff, 0xff, 0xff, 0xff, 0x01, 0x00, 0x00, 0x00, 0x64, 0x6b, 0x8c, 0x3f,
  0x97, 0x00, 0x00, 0x00, 0x63, 0x75, 0x73, 0x74, 0x6f, 0x6d, 0x5f, 0x6d,
  0x6f, 0x64, 0x65, 0x6c, 0x2f, 0x63, 0x6f, 0x6e, 0x76, 0x32, 0x64, 0x2f,
  0x52, 0x65, 0x6c, 0x75, 0x3b, 0x63, 0x75, 0x73, 0x74, 0x6f, 0x6d, 0x5f,
  0x6d, 0x6f, 0x64, 0x65, 0x6c, 0x2f, 0x63, 0x6f, 0x6e, 0x76, 0x32, 0x64,
  0x2f, 0x42, 0x69, 0x61, 0x73, 0x41, 0x64, 0x64, 0x3b, 0x63, 0x75, 0x73,
  0x74, 0x6f, 0x6d, 0x5f, 0x6d, 0x6f, 0x64, 0x65, 0x6c, 0x2f, 0x63, 0x6f,
  0x6e, 0x76, 0x32, 0x64, 0x5f, 0x32, 0x2f, 0x43, 0x6f, 0x6e, 0x76, 0x32,
  0x44, 0x3b, 0x63, 0x75, 0x73, 0x74, 0x6f, 0x6d, 0x5f, 0x6d, 0x6f, 0x64,
  0x65, 0x6c, 0x2f, 0x63, 0x6f, 0x6e, 0x76, 0x32, 0x64, 0x2f, 0x43, 0x6f,
  0x6e, 0x76, 0x32, 0x44, 0x3b, 0x63, 0x75, 0x73, 0x74, 0x6f, 0x6d, 0x5f,
  0x6d, 0x6f, 0x64, 0x65, 0x6c, 0x2f, 0x63, 0x6f, 0x6e, 0x76, 0x32, 0x64,
  0x2f, 0x42, 0x69, 0x61, 0x73, 0x41, 0x64, 0x64, 0x2f, 0x52, 0x65, 0x61,
  0x64, 0x56, 0x61, 0x72, 0x69, 0x61, 0x62, 0x6c, 0x65, 0x4f, 0x70, 0x00,
  0x04, 0x00, 0x00, 0x00, 0x01, 0x00, 0x00, 0x00, 0x31, 0x00, 0x00, 0x00,
  0x28, 0x00, 0x00, 0x00, 0x04, 0x00, 0x00, 0x00, 0xa2, 0xfa, 0xff, 0xff,
  0x14, 0x00, 0x00, 0x00, 0x34, 0x00, 0x00, 0x00, 0x0c, 0x00, 0x00, 0x00,
  0x00, 0x00, 0x00, 0x09, 0x48, 0x00, 0x00, 0x00, 0x94, 0xfa, 0xff, 0xff,
  0x08, 0x00, 0x00, 0x00, 0x14, 0x00, 0x00, 0x00, 0x01, 0x00, 0x00, 0x00,
  0x00, 0x00, 0x00, 0x00, 0x00, 0x00, 0x00, 0x00, 0x00, 0x00, 0x00, 0x00,
  0x01, 0x00, 0x00, 0x00, 0x00, 0x00, 0x80, 0x3f, 0x18, 0x00, 0x00, 0x00,
  0x63, 0x75, 0x73, 0x74, 0x6f, 0x6d, 0x5f, 0x6d, 0x6f, 0x64, 0x65, 0x6c,
  0x2f, 0x45, 0x78, 0x70, 0x61, 0x6e, 0x64, 0x44, 0x69, 0x6d, 0x73, 0x31,
  0x00, 0x00, 0x00, 0x00, 0x04, 0x00, 0x00, 0x00, 0x01, 0x00, 0x00, 0x00,
  0x31, 0x00, 0x00, 0x00, 0x28, 0x00, 0x00, 0x00, 0x01, 0x00, 0x00, 0x00,
  0x12, 0xfb, 0xff, 0xff, 0x14, 0x00, 0x00, 0x00, 0x30, 0x00, 0x00, 0x00,
  0x0b, 0x00, 0x00, 0x00, 0x00, 0x00, 0x00, 0x02, 0x54, 0x00, 0x00, 0x00,
  0x04, 0xfb, 0xff, 0xff, 0x08, 0x00, 0x00, 0x00, 0x10, 0x00, 0x00, 0x00,
  0x01, 0x00, 0x00, 0x00, 0x00, 0x00, 0x00, 0x00, 0x00, 0x00, 0x00, 0x00,
  0x01, 0x00, 0x00, 0x00, 0xca, 0x78, 0xca, 0x3c, 0x2b, 0x00, 0x00, 0x00,
  0x63, 0x75, 0x73, 0x74, 0x6f, 0x6d, 0x5f, 0x6d, 0x6f, 0x64, 0x65, 0x6c,
  0x2f, 0x64, 0x65, 0x6e, 0x73, 0x65, 0x5f, 0x31, 0x2f, 0x42, 0x69, 0x61,
  0x73, 0x41, 0x64, 0x64, 0x2f, 0x52, 0x65, 0x61, 0x64, 0x56, 0x61, 0x72,
  0x69, 0x61, 0x62, 0x6c, 0x65, 0x4f, 0x70, 0x00, 0x01, 0x00, 0x00, 0x00,
  0x0a, 0x00, 0x00, 0x00, 0x82, 0xfb, 0xff, 0xff, 0x14, 0x00, 0x00, 0x00,
  0x34, 0x00, 0x00, 0x00, 0x0a, 0x00, 0x00, 0x00, 0x00, 0x00, 0x00, 0x09,
  0x48, 0x00, 0x00, 0x00, 0x74, 0xfb, 0xff, 0xff, 0x08, 0x00, 0x00, 0x00,
  0x14, 0x00, 0x00, 0x00, 0x01, 0x00, 0x00, 0x00, 0x00, 0x00, 0x00, 0x00,
  0x00, 0x00, 0x00, 0x00, 0x00, 0x00, 0x00, 0x00, 0x01, 0x00, 0x00, 0x00,
  0xc8, 0x69, 0x27, 0x3c, 0x1b, 0x00, 0x00, 0x00, 0x63, 0x75, 0x73, 0x74,
  0x6f, 0x6d, 0x5f, 0x6d, 0x6f, 0x64, 0x65, 0x6c, 0x2f, 0x64, 0x65, 0x6e,
  0x73, 0x65, 0x5f, 0x31, 0x2f, 0x4d, 0x61, 0x74, 0x4d, 0x75, 0x6c, 0x00,
  0x02, 0x00, 0x00, 0x00, 0x0a, 0x00, 0x00, 0x00, 0x8c, 0x00, 0x00, 0x00,
  0xea, 0xfb, 0xff, 0xff, 0x14, 0x00, 0x00, 0x00, 0x54, 0x00, 0x00, 0x00,
  0x09, 0x00, 0x00, 0x00, 0x00, 0x00, 0x00, 0x02, 0x7c, 0x00, 0x00, 0x00,
  0xdc, 0xfb, 0xff, 0xff, 0x08, 0x00, 0x00, 0x00, 0x28, 0x00, 0x00, 0x00,
  0x04, 0x00, 0x00, 0x00, 0x00, 0x00, 0x00, 0x00, 0x00, 0x00, 0x00, 0x00,
  0x00, 0x00, 0x00, 0x00, 0x00, 0x00, 0x00, 0x00, 0x00, 0x00, 0x00, 0x00,
  0x00, 0x00, 0x00, 0x00, 0x00, 0x00, 0x00, 0x00, 0x00, 0x00, 0x00, 0x00,
  0x04, 0x00, 0x00, 0x00, 0x65, 0x43, 0x06, 0x3c, 0x98, 0x0e, 0xd8, 0x3b,
  0xdd, 0x6d, 0x53, 0x3c, 0x0c, 0x34, 0x0f, 0x3c, 0x2c, 0x00, 0x00, 0x00,
  0x63, 0x75, 0x73, 0x74, 0x6f, 0x6d, 0x5f, 0x6d, 0x6f, 0x64, 0x65, 0x6c,
  0x2f, 0x63, 0x6f, 0x6e, 0x76, 0x32, 0x64, 0x5f, 0x32, 0x2f, 0x42, 0x69,
  0x61, 0x73, 0x41, 0x64, 0x64, 0x2f, 0x52, 0x65, 0x61, 0x64, 0x56, 0x61,
  0x72, 0x69, 0x61, 0x62, 0x6c, 0x65, 0x4f, 0x70, 0x00, 0x00, 0x00, 0x00,
  0x01, 0x00, 0x00, 0x00, 0x04, 0x00, 0x00, 0x00, 0x82, 0xfc, 0xff, 0xff,
  0x14, 0x00, 0x00, 0x00, 0x58, 0x00, 0x00, 0x00, 0x08, 0x00, 0x00, 0x00,
  0x00, 0x00, 0x00, 0x09, 0x70, 0x00, 0x00, 0x00, 0x74, 0xfc, 0xff, 0xff,
  0x08, 0x00, 0x00, 0x00, 0x2c, 0x00, 0x00, 0x00, 0x04, 0x00, 0x00, 0x00,
  0x00, 0x00, 0x00, 0x00, 0x00, 0x00, 0x00, 0x00, 0x00, 0x00, 0x00, 0x00,
  0x00, 0x00, 0x00, 0x00, 0x00, 0x00, 0x00, 0x00, 0x00, 0x00, 0x00, 0x00,
  0x00, 0x00, 0x00, 0x00, 0x00, 0x00, 0x00, 0x00, 0x00, 0x00, 0x00, 0x00,
  0x04, 0x00, 0x00, 0x00, 0xf4, 0xe2, 0x96, 0x3b, 0xa8, 0xce, 0x72, 0x3b,
  0x3f, 0x9b, 0xed, 0x3b, 0xf8, 0xee, 0xa0, 0x3b, 0x1c, 0x00, 0x00, 0x00,
  0x63, 0x75, 0x73, 0x74, 0x6f, 0x6d, 0x5f, 0x6d, 0x6f, 0x64, 0x65, 0x6c,
  0x2f, 0x63, 0x6f, 0x6e, 0x76, 0x32, 0x64, 0x5f, 0x32, 0x2f, 0x43, 0x6f,
  0x6e, 0x76, 0x32, 0x44, 0x00, 0x00, 0x00, 0x00, 0x04, 0x00, 0x00, 0x00,
  0x04, 0x00, 0x00, 0x00, 0x03, 0x00, 0x00, 0x00, 0x03, 0x00, 0x00, 0x00,
  0x04, 0x00, 0x00, 0x00, 0x1a, 0xfd, 0xff, 0xff, 0x14, 0x00, 0x00, 0x00,
  0x54, 0x00, 0x00, 0x00, 0x07, 0x00, 0x00, 0x00, 0x00, 0x00, 0x00, 0x02,
  0x7c, 0x00, 0x00, 0x00, 0x0c, 0xfd, 0xff, 0xff, 0x08, 0x00, 0x00, 0x00,
  0x28, 0x00, 0x00, 0x00, 0x04, 0x00, 0x00, 0x00, 0x00, 0x00, 0x00, 0x00,
  0x00, 0x00, 0x00, 0x00, 0x00, 0x00, 0x00, 0x00, 0x00, 0x00, 0x00, 0x00,
  0x00, 0x00, 0x00, 0x00, 0x00, 0x00, 0x00, 0x00, 0x00, 0x00, 0x00, 0x00,
  0x00, 0x00, 0x00, 0x00, 0x04, 0x00, 0x00, 0x00, 0xa0, 0xe6, 0x9d, 0x3b,
  0x69, 0x83, 0xac, 0x3b, 0x41, 0x54, 0x8c, 0x3b, 0x29, 0x32, 0xaf, 0x3b,
  0x2c, 0x00, 0x00, 0x00, 0x63, 0x75, 0x73, 0x74, 0x6f, 0x6d, 0x5f, 0x6d,
  0x6f, 0x64, 0x65, 0x6c, 0x2f, 0x63, 0x6f, 0x6e, 0x76, 0x32, 0x64, 0x5f,
  0x31, 0x2f, 0x42, 0x69, 0x61, 0x73, 0x41, 0x64, 0x64, 0x2f, 0x52, 0x65,
  0x61, 0x64, 0x56, 0x61, 0x72, 0x69, 0x61, 0x62, 0x6c, 0x65, 0x4f, 0x70,
  0x00, 0x00, 0x00, 0x00, 0x01, 0x00, 0x00, 0x00, 0x04, 0x00, 0x00, 0x00,
  0xb2, 0xfd, 0xff, 0xff, 0x14, 0x00, 0x00, 0x00, 0x58, 0x00, 0x00, 0x00,
  0x06, 0x00, 0x00, 0x00, 0x00, 0x00, 0x00, 0x09, 0x70, 0x00, 0x00, 0x00,
  0xa4, 0xfd, 0xff, 0xff, 0x08, 0x00, 0x00, 0x00, 0x2c, 0x00, 0x00, 0x00,
  0x04, 0x00, 0x00, 0x00, 0x00, 0x00, 0x00, 0x00, 0x00, 0x00, 0x00, 0x00,
  0x00, 0x00, 0x00, 0x00, 0x00, 0x00, 0x00, 0x00, 0x00, 0x00, 0x00, 0x00,
  0x00, 0x00, 0x00, 0x00, 0x00, 0x00, 0x00, 0x00, 0x00, 0x00, 0x00, 0x00,
  0x00, 0x00, 0x00, 0x00, 0x04, 0x00, 0x00, 0x00, 0x6b, 0xef, 0x8f, 0x3b,
  0x59, 0x41, 0x9d, 0x3b, 0xd2, 0xd5, 0x7f, 0x3b, 0x5c, 0xb3, 0x9f, 0x3b,
  0x1c, 0x00, 0x00, 0x00, 0x63, 0x75, 0x73, 0x74, 0x6f, 0x6d, 0x5f, 0x6d,
  0x6f, 0x64, 0x65, 0x6c, 0x2f, 0x63, 0x6f, 0x6e, 0x76, 0x32, 0x64, 0x5f,
  0x31, 0x2f, 0x43, 0x6f, 0x6e, 0x76, 0x32, 0x44, 0x00, 0x00, 0x00, 0x00,
  0x04, 0x00, 0x00, 0x00, 0x04, 0x00, 0x00, 0x00, 0x03, 0x00, 0x00, 0x00,
  0x03, 0x00, 0x00, 0x00, 0x04, 0x00, 0x00, 0x00, 0x4a, 0xfe, 0xff, 0xff,
  0x14, 0x00, 0x00, 0x00, 0x58, 0x00, 0x00, 0x00, 0x05, 0x00, 0x00, 0x00,
  0x00, 0x00, 0x00, 0x02, 0x7c, 0x00, 0x00, 0x00, 0x3c, 0xfe, 0xff, 0xff,
  0x08, 0x00, 0x00, 0x00, 0x2c, 0x00, 0x00, 0x00, 0x04, 0x00, 0x00, 0x00,
  0x00, 0x00, 0x00, 0x00, 0x00, 0x00, 0x00, 0x00, 0x00, 0x00, 0x00, 0x00,
  0x00, 0x00, 0x00, 0x00, 0x00, 0x00, 0x00, 0x00, 0x00, 0x00, 0x00, 0x00,
  0x00, 0x00, 0x00, 0x00, 0x00, 0x00, 0x00, 0x00, 0x00, 0x00, 0x00, 0x00,
  0x04, 0x00, 0x00, 0x00, 0x59, 0x3f, 0x84, 0x3b, 0x79, 0x0d, 0xbe, 0x3b,
  0x04, 0x85, 0x87, 0x3b, 0xd6, 0x67, 0x39, 0x3b, 0x2a, 0x00, 0x00, 0x00,
  0x63, 0x75, 0x73, 0x74, 0x6f, 0x6d, 0x5f, 0x6d, 0x6f, 0x64, 0x65, 0x6c,
  0x2f, 0x63, 0x6f, 0x6e, 0x76, 0x32, 0x64, 0x2f, 0x42, 0x69, 0x61, 0x73,
  0x41, 0x64, 0x64, 0x2f, 0x52, 0x65, 0x61, 0x64, 0x56, 0x61, 0x72, 0x69,
  0x61, 0x62, 0x6c, 0x65, 0x4f, 0x70, 0x00, 0x00, 0x01, 0x00, 0x00, 0x00,
  0x04, 0x00, 0x00, 0x00, 0xe2, 0xfe, 0xff, 0xff, 0x14, 0x00, 0x00, 0x00,
  0x58, 0x00, 0x00, 0x00, 0x04, 0x00, 0x00, 0x00, 0x00, 0x00, 0x00, 0x09,
  0x6c, 0x00, 0x00, 0x00, 0xd4, 0xfe, 0xff, 0xff, 0x08, 0x00, 0x00, 0x00,
  0x2c, 0x00, 0x00, 0x00, 0x04, 0x00, 0x00, 0x00, 0x00, 0x00, 0x00, 0x00,
  0x00, 0x00, 0x00, 0x00, 0x00, 0x00, 0x00, 0x00, 0x00, 0x00, 0x00, 0x00,
  0x00, 0x00, 0x00, 0x00, 0x00, 0x00, 0x00, 0x00, 0x00, 0x00, 0x00, 0x00,
  0x00, 0x00, 0x00, 0x00, 0x00, 0x00, 0x00, 0x00, 0x04, 0x00, 0x00, 0x00,
  0x59, 0x3f, 0x84, 0x3b, 0x79, 0x0d, 0xbe, 0x3b, 0x04, 0x85, 0x87, 0x3b,
  0xd6, 0x67, 0x39, 0x3b, 0x1a, 0x00, 0x00, 0x00, 0x63, 0x75, 0x73, 0x74,
  0x6f, 0x6d, 0x5f, 0x6d, 0x6f, 0x64, 0x65, 0x6c, 0x2f, 0x63, 0x6f, 0x6e,
  0x76, 0x32, 0x64, 0x2f, 0x43, 0x6f, 0x6e, 0x76, 0x32, 0x44, 0x00, 0x00,
  0x04, 0x00, 0x00, 0x00, 0x04, 0x00, 0x00, 0x00, 0x03, 0x00, 0x00, 0x00,
  0x03, 0x00, 0x00, 0x00, 0x01, 0x00, 0x00, 0x00, 0x76, 0xff, 0xff, 0xff,
  0x14, 0x00, 0x00, 0x00, 0x14, 0x00, 0x00, 0x00, 0x03, 0x00, 0x00, 0x00,
  0x00, 0x00, 0x00, 0x02, 0x28, 0x00, 0x00, 0x00, 0xbc, 0xff, 0xff, 0xff,
  0x1a, 0x00, 0x00, 0x00, 0x63, 0x75, 0x73, 0x74, 0x6f, 0x6d, 0x5f, 0x6d,
  0x6f, 0x64, 0x65, 0x6c, 0x2f, 0x66, 0x6c, 0x61, 0x74, 0x74, 0x65, 0x6e,
  0x2f, 0x43, 0x6f, 0x6e, 0x73, 0x74, 0x00, 0x00, 0x01, 0x00, 0x00, 0x00,
  0x02, 0x00, 0x00, 0x00, 0xba, 0xff, 0xff, 0xff, 0x18, 0x00, 0x00, 0x00,
  0x18, 0x00, 0x00, 0x00, 0x02, 0x00, 0x00, 0x00, 0x00, 0x00, 0x00, 0x02,
  0x28, 0x00, 0x00, 0x00, 0x04, 0x00, 0x04, 0x00, 0x04, 0x00, 0x00, 0x00,
  0x17, 0x00, 0x00, 0x00, 0x63, 0x75, 0x73, 0x74, 0x6f, 0x6d, 0x5f, 0x6d,
  0x6f, 0x64, 0x65, 0x6c, 0x2f, 0x45, 0x78, 0x70, 0x61, 0x6e, 0x64, 0x44,
  0x69, 0x6d, 0x73, 0x00, 0x01, 0x00, 0x00, 0x00, 0x04, 0x00, 0x00, 0x00,
  0x00, 0x00, 0x0e, 0x00, 0x18, 0x00, 0x14, 0x00, 0x13, 0x00, 0x0c, 0x00,
  0x08, 0x00, 0x04, 0x00, 0x0e, 0x00, 0x00, 0x00, 0x20, 0x00, 0x00, 0x00,
  0x3c, 0x00, 0x00, 0x00, 0x01, 0x00, 0x00, 0x00, 0x00, 0x00, 0x00, 0x09,
  0x48, 0x00, 0x00, 0x00, 0x0c, 0x00, 0x0c, 0x00, 0x00, 0x00, 0x00, 0x00,
  0x08, 0x00, 0x04, 0x00, 0x0c, 0x00, 0x00, 0x00, 0x08, 0x00, 0x00, 0x00,
  0x10, 0x00, 0x00, 0x00, 0x01, 0x00, 0x00, 0x00, 0x00, 0x00, 0x00, 0x00,
  0x00, 0x00, 0x00, 0x00, 0x01, 0x00, 0x00, 0x00, 0x00, 0x00, 0x80, 0x3f,
  0x13, 0x00, 0x00, 0x00, 0x73, 0x65, 0x72, 0x76, 0x69, 0x6e, 0x67, 0x5f,
  0x64, 0x65, 0x66, 0x61, 0x75, 0x6c, 0x74, 0x5f, 0x78, 0x3a, 0x30, 0x00,
  0x03, 0x00, 0x00, 0x00, 0x01, 0x00, 0x00, 0x00, 0x31, 0x00, 0x00, 0x00,
  0x28, 0x00, 0x00, 0x00, 0x04, 0x00, 0x00, 0x00, 0x58, 0x00, 0x00, 0x00,
  0x38, 0x00, 0x00, 0x00, 0x18, 0x00, 0x00, 0x00, 0x04, 0x00, 0x00, 0x00,
  0xe0, 0xff, 0xff, 0xff, 0x09, 0x00, 0x00, 0x00, 0x04, 0x00, 0x00, 0x00,
  0x00, 0x00, 0x00, 0x09, 0xf0, 0xff, 0xff, 0xff, 0x11, 0x00, 0x00, 0x00,
  0x02, 0x00, 0x00, 0x00, 0x00, 0x00, 0x00, 0x11, 0x0c, 0x00, 0x10, 0x00,
  0x0f, 0x00, 0x00, 0x00, 0x08, 0x00, 0x04, 0x00, 0x0c, 0x00, 0x00, 0x00,
  0x03, 0x00, 0x00, 0x00, 0x03, 0x00, 0x00, 0x00, 0x00, 0x00, 0x00, 0x03,
  0x0c, 0x00, 0x0c, 0x00, 0x0b, 0x00, 0x00, 0x00, 0x00, 0x00, 0x04, 0x00,
  0x0c, 0x00, 0x00, 0x00, 0x16, 0x00, 0x00, 0x00, 0x00, 0x00, 0x00, 0x16
};
const int SV_model_data_len = 6120;
